0000
0001
0000
0001
0001
0000
0001
0001
0000
FFFF
0000
0000
0000
0002
0001
0001
0001
FFFD
0000
0001
0001
0001
0000
0000
0001
0000
FFFF
0000
0000
0000
0001
0001
0001
0000
0000
0000
0001
FFFF
0001
0000
0001
0001
0000
0001
0000
FFFF
0000
0001
FFFF
0000
0001
0000
0001
0000
0001
0000
0001
0000
0000
0001
0000
0001
0000
0001
