F0
00
00
00
00
E0
0F
DE
D0
02
00
00
F0
00
0F
00
F0
0F
00
E0
EF
00
0F
00
00
0D
01
01
F0
11
11
00
10
01
00
01
00
11
01
00
0F
10
0F
02
EF
F0
F1
11
00
00
01
00
00
00
01
11
01
01
0F
00
00
10
00
11
00
EE
00
00
01
0F
00
00
00
01
0F
0E
00
F0
F0
00
0F
F0
00
00
00
01
00
F0
F0
00
00
F9
01
00
11
00
F0
0B
10
00
EF
10
F0
00
00
10
E0
0D
00
00
00
0B
FF
0D
D0
01
D0
00
00
00
F0
FF
00
00
00
00
0E
00
E0
FE
00
01
01
00
0F
00
0F
00
00
0F
00
0E
01
FF
00
00
0F
01
01
01
00
FF
00
F0
F2
E1
F0
10
0F
00
F1
01
0F
00
F0
01
00
00
FC
1F
0F
01
0F
10
F1
00
00
FF
00
F0
E0
00
02
0F
E1
00
F0
10
F0
1F
F1
11
0F
01
F0
00
00
00
00
00
10
FF
01
00
00
00
00
0F
01
00
F0
00
11
00
00
00
0E
00
0F
0C
FE
E0
01
F0
1D
0F
01
00
FF
00
FF
00
00
C0
00
0F
00
00
0F
0F
00
00
FF
00
10
F0
00
F0
1D
1F
0F
D0
00
F0
01
D0
10
10
10
00
F0
0E
00
00
00
00
00
F1
0F
00
00
00
0E
F0
00
D0
00
0F
00
00
00
00
00
00
00
F0
00
F0
10
1C
F0
01
0E
00
10
00
01
F0
F0
02
00
00
00
00
01
0E
00
00
20
00
00
00
0F
E0
00
00
0F
00
00
00
1F
10
10
00
00
0D
00
00
00
01
01
00
0F
00
E0
0F
0F
F1
00
00
01
01
00
F0
00
00
01
01
F0
11
01
10
10
01
11
F0
0E
01
F0
00
00
00
E0
02
00
00
00
F1
E0
0F
00
F0
10
0F
F0
00
10
E0
0E
0F
00
00
11
0F
F0
FF
00
00
F0
00
00
00
0F
02
00
FE
00
F0
EF
F0
E0
EF
00
00
00
01
0F
E0
F0
00
00
FF
01
00
00
00
F0
EE
00
00
F0
1F
00
F0
0F
10
FF
0E
00
00
00
10
FF
00
E1
00
E0
00
01
00
01
00
F0
00
0F
10
00
01
00
0F
0F
00
F1
F0
0F
FE
FF
02
00
FF
00
F0
0E
00
E0
0E
0F
F0
EF
01
0F
FF
00
FF
F0
10
00
10
00
00
10
01
0F
10
F0
00
00
FF
F0
1F
0F
01
FE
E0
00
10
00
F1
E2
00
10
00
10
11
10
00
00
00
F0
1F
00
01
0E
00
00
00
F0
1F
0F
00
0F
01
01
00
00
00
F1
0F
10
01
00
00
20
01
F1
F0
E1
00
01
01
E1
00
01
10
10
01
11
E1
0F
F1
FF
F0
F0
10
FF
02
0F
10
01
E0
F0
0F
00
F0
10
0F
E1
FF
00
0F
FF
0F
0F
00
10
1F
11
00
00
10
F1
00
00
01
00
01
01
F0
F0
00
00
11
0F
00
0F
00
1E
00
00
0F
00
F0
F0
F1
01
01
01
10
20
10
11
01
13
11
1E
00
01
0F
00
01
00
00
F2
F0
01
0F
0F
0F
2F
01
00
F0
00
F0
0F
00
FE
0F
1E
0F
F0
EF
F0
01
02
01
00
00
00
01
01
00
00
0E
10
F0
01
F0
0E
10
10
00
00
0E
00
D0
E0
10
00
00
00
00
10
10
00
00
FF
01
00
00
0F
0E
10
01
00
00
00
00
1F
E0
F0
F0
10
00
01
00
00
10
00
F0
E0
0E
00
00
E0
01
1F
F1
01
00
FE
00
00
00
F0
01
1F
00
00
00
0F
00
00
0F
10
F1
E0
00
F0
00
10
01
00
00
01
0F
10
11
01
00
00
01
0E
FF
EF
00
0F
10
0F
FF
10
F0
00
01
0F
00
20
00
00
F1
10
00
F0
00
00
00
00
0E
01
0F
0F
00
00
10
0F
01
F0
0F
0C
00
1F
F0
0E
00
D0
0E
00
00
F0
0F
FD
00
00
01
0F
FD
00
00
1E
F0
F0
10
0D
00
E0
1E
0F
EF
F0
00
00
19
10
00
10
00
00
00
0F
01
11
00
00
00
10
00
00
00
00
00
E0
0F
00
00
00
01
00
00
00
00
00
FF
00
00
F0
00
00
0E
00
00
0F
00
00
00
00
0F
00
00
F0
11
FF
ED
FF
F0
F0
DF
F0
0D
0D
EE
0F
00
00
F0
00
FD
00
00
FE
00
00
FF
0F
0F
EF
0F
00
F0
00
00
0F
00
F0
FF
00
0F
0F
00
0F
00
01
0F
0F
00
0F
00
00
0F
00
00
E0
00
00
E0
00
00
00
01
F0
F0
E0
00
00
00
01
00
10
00
F0
00
00
F0
00
00
FF
F0
F0
00
FF
0F
0E
00
00
E0
E0
0F
00
00
00
00
E1
00
00
0F
F0
10
0F
F0
00
0F
00
00
F0
00
00
0E
00
00
00
00
0F
00
00
0F
F0
00
0F
F0
0F
00
00
00
00
0E
00
F0
F0
FE
00
0F
0F
00
D0
EA
00
0E
0F
0F
00
00
00
0F
E0
0E
00
00
00
00
F0
FD
00
00
90
00
01
00
C0
E0
00
0F
F0
0E
F0
00
10
00
10
00
00
FF
00
EF
F0
10
00
00
00
00
F0
0F
0F
F0
00
F0
FF
00
00
0F
01
00
00
01
FF
F0
00
F0
F0
00
00
00
00
0F
00
00
01
00
F0
02
00
0F
00
00
F1
0F
00
00
C0
FF
00
01
C0
F0
00
0E
00
0F
00
00
10
11
11
10
00
1F
00
11
11
00
01
01
0F
11
00
10
0F
10
01
00
10
00
00
10
01
11
10
F1
01
11
10
10
20
11
11
01
11
00
10
00
01
01
F1
13
10
10
01
F0
01
1F
00
00
21
00
00
1F
11
F0
01
10
10
00
10
00
0E
01
00
F1
0C
00
00
11
00
0D
F0
00
EF
00
00
0F
00
00
E0
00
01
FF
00
00
00
00
0E
F0
F1
00
F0
0F
10
00
01
E1
00
F0
E0
00
00
F0
00
F2
00
00
F0
F0
00
00
00
0F
1F
F0
EE
0F
00
0D
00
00
00
00
01
00
00
01
00
D0
01
00
F0
0F
00
D0
F0
0F
E0
00
00
00
F1
00
00
0C
0F
0F
00
00
00
0F
0F
02
00
00
EF
0F
00
00
F1
00
1F
10
00
01
00
F0
00
E0
F0
10
FD
01
00
00
00
0E
1E
00
01
00
10
00
00
00
00
00
00
F0
F0
00
00
00
0F
00
00
00
0F
0F
FF
0E
00
F0
F0
E0
00
00
F0
00
01
EF
00
F0
00
00
0F
EF
00
00
0F
0F
A0
F0
00
0E
00
0F
00
00
0E
00
00
0D
00
0E
00
00
0F
00
00
00
D0
00
00
00
00
1F
F0
01
00
00
D0
00
FF
01
EF
1C
0D
00
00
FF
00
01
00
01
F0
00
10
0F
00
00
00
01
0F
01
00
00
0F
0F
00
10
FF
FF
F1
00
10
0F
F1
00
0F
00
E0
0F
0F
F0
00
00
00
E0
F1
10
1F
00
00
EF
2F
0F
1D
00
0F
01
0F
00
00
F0
00
01
00
00
F0
00
01
01
00
00
00
E1
01
00
F1
00
10
0F
01
10
F0
10
00
00
00
00
1E
00
00
01
0F
10
F0
00
10
0F
F1
00
0E
10
F1
00
00
00
10
00
00
00
FD
10
00
01
F1
00
20
D0
01
00
10
10
00
FF
00
00
10
01
1E
11
00
01
01
0F
00
00
00
F0
01
00
0F
F0
00
00
0F
0F
00
01
01
00
F0
00
00
00
0D
0C
00
20
0F
00
1F
1C
1E
E1
F0
10
F0
00
00
00
01
01
00
01
F0
0F
00
00
DF
00
20
0F
E1
0E
1F
FE
00
D0
00
00
11
D0
0F
00
00
01
00
0F
00
00
00
F0
00
01
0F
00
00
0E
0F
00
00
00
00
00
00
00
00
00
00
00
E0
00
00
00
00
00
00
00
0E
F0
F0
00
00
00
F0
00
00
00
0F
00
00
00
00
F0
00
FE
00
00
00
F0
0E
0E
00
00
00
00
01
00
10
0D
0C
00
00
01
00
0D
01
0F
F0
00
F0
10
00
00
00
F0
01
0F
00
00
00
01
0F
FE
01
01
FF
00
10
01
1C
01
01
E1
1F
00
01
F0
F0
F3
00
10
F1
FE
F0
00
0F
0F
0F
00
0A
F0
F0
0F
00
00
00
10
1F
0F
00
11
0E
0F
E1
0E
0E
00
0E
02
01
F0
00
00
F0
00
00
F1
00
01
11
01
F0
E0
E0
00
00
12
F0
00
02
E0
1E
01
12
01
00
11
00
FF
E1
00
FE
03
0E
F0
01
00
E0
0F
01
00
10
0F
01
01
1E
F0
EF
0F
0F
E0
11
00
00
0F
00
01
02
E0
00
FF
E0
01
00
01
F0
00
10
F0
00
0F
00
00
F0
0F
00
00
00
0F
00
01
00
01
F0
10
10
10
FF
01
F0
11
01
01
00
00
00
01
E0
00
E0
10
00
00
01
0F
2F
00
11
10
10
01
00
F0
00
00
10
01
0E
00
F0
00
01
00
01
00
00
D0
01
0F
00
00
00
0F
0F
01
00
11
10
01
00
00
00
00
00
FD
F0
10
00
00
00
0D
11
F0
EE
00
E0
01
00
10
00
0F
01
10
0E
0E
0F
00
F0
D0
00
0E
01
0E
00
FE
0F
F0
00
00
00
00
D0
FF
F0
01
01
00
00
11
10
00
00
0F
00
E0
00
F0
00
00
00
10
11
00
00
00
00
00
01
EE
01
11
00
10
00
10
1E
F0
C0
01
F0
01
0E
10
00
01
00
10
F0
0D
0E
F0
E0
0F
1F
00
F1
F0
10
0E
00
10
00
00
FE
10
00
00
0F
0E
D0
0F
00
F0
00
01
01
FF
0F
00
E0
10
0F
E0
00
E0
00
00
00
F0
00
00
00
00
00
00
01
F0
0E
10
01
01
11
10
00
0F
00
00
E0
01
00
F0
01
00
E0
0F
00
00
D0
F0
0F
00
F0
F0
00
00
0E
00
00
00
F0
11
0F
F1
01
00
EF
01
0F
00
E0
F0
0F
F0
00
F0
F0
00
F1
0F
10
E0
00
F1
FF
00
00
00
00
00
00
0E
10
10
01
F0
00
00
FF
F0
FF
01
0F
00
00
0F
00
F0
0F
00
0F
00
10
00
F1
F0
10
00
F0
00
1F
01
00
0F
00
01
00
00
0C
00
00
00
10
0F
01
F0
E0
00
00
00
00
00
00
00
1F
00
00
00
00
00
0F
FE
00
00
E0
00
10
F0
0F
00
00
EF
0F
00
00
00
00
E0
00
00
E0
FF
00
00
0E
0E
1E
00
0E
E0
00
0F
00
F0
00
00
00
FF
00
01
0F
0F
E1
0E
0E
00
0E
01
01
F0
0F
00
E0
10
0F
E0
00
00
00
00
F0
E0
F0
00
01
12
00
F0
01
00
10
11
01
00
00
10
00
FF
E0
10
EF
02
0F
00
00
00
E0
0F
E1
00
10
00
0F
01
00
E0
E0
00
0F
F0
10
00
00
00
0E
00
01
10
0F
00
0F
00
01
E0
10
10
0F
00
F0
00
00
00
01
00
EF
00
F0
01
00
11
00
F1
01
F0
10
11
0F
01
00
01
0E
DF
F0
00
0F
11
1F
F0
11
F0
00
00
FE
01
11
00
00
E1
10
00
F0
00
0E
F0
00
0F
00
01
00
00
F0
00
00
00
00
00
02
E0
E0
00
00
00
00
10
00
00
1F
00
00
00
1F
00
0F
01
0F
01
E1
E0
2E
12
F1
01
10
00
0F
00
10
E0
01
E2
01
10
F0
00
00
F0
0F
0E
3E
00
00
EF
0E
00
10
E0
00
F0
1F
E0
FF
00
0F
FF
0E
00
FE
00
0F
0C
FE
00
00
F0
00
F0
00
00
F0
00
00
FF
00
00
FF
00
00
10
0F
FD
0E
00
F0
01
F0
0D
00
FE
00
0F
FF
F0
0F
0C
0F
FF
00
F0
00
00
00
00
00
00
FE
00
00
0F
F0
00
00
F0
F0
00
00
0F
F0
11
02
E0
0F
00
F0
F2
00
01
F0
F0
10
0F
E0
1E
00
01
00
00
0F
00
00
0E
00
F1
F0
10
F0
00
10
1F
10
01
EF
11
01
00
00
10
00
01
E0
10
E1
11
00
00
E1
EF
20
0F
02
1E
10
00
F0
00
00
00
00
11
00
F0
00
0D
FD
0F
00
0F
00
00
01
F0
00
0E
F0
10
00
F0
0F
F0
0F
00
00
FE
00
E0
F0
00
00
E0
00
F0
F0
C2
00
0F
01
0E
00
00
00
0F
F0
00
00
E0
00
01
F0
F0
00
00
D0
00
0B
01
D0
00
00
10
F0
FE
1F
00
0F
00
00
E0
0F
0F
F0
00
00
0E
F0
00
0F
00
00
0F
FE
0F
F0
0F
01
FF
00
00
00
00
0F
01
F0
00
0F
0F
10
11
00
00
00
10
00
00
00
F0
00
01
00
0F
0F
00
00
00
00
F0
20
EF
00
00
00
FF
00
0E
00
00
10
F0
00
00
E0
00
00
01
00
FF
00
E1
00
F0
00
00
00
0F
01
00
0F
F0
0E
00
00
00
0F
F0
F1
11
FE
0F
00
00
00
FA
EF
1F
0D
00
00
00
00
FF
10
0F
00
00
0D
01
00
E0
00
00
E0
F0
10
0E
0F
11
0F
0F
FE
0F
00
00
00
00
00
01
00
10
00
01
0F
0E
0C
0E
00
E0
00
F0
00
00
00
00
00
0F
00
F0
00
01
00
CD
00
00
0E
00
A0
F0
0D
0E
C0
E0
0E
00
0F
00
0F
0D
1F
00
00
FF
00
00
0E
00
D0
00
00
E0
00
00
00
00
00
00
C0
0F
00
00
00
00
00
00
00
01
10
00
01
00
00
0F
01
F0
10
01
0F
01
21
01
01
0F
00
F0
F0
F0
00
11
01
00
10
01
01
00
00
F1
00
00
00
0F
00
02
01
10
01
FF
00
F0
0F
0F
00
00
00
0F
F0
0F
00
00
F0
0F
1F
00
EF
01
00
00
0C
00
0F
00
0F
00
0D
0F
F0
F0
F1
E0
00
00
00
00
11
00
00
F0
00
00
00
EA
00
1F
F0
10
E0
0F
0E
FF
E0
C1
FF
00
FF
10
0F
0D
00
10
E0
ED
0F
00
0F
0F
FF
00
F1
F0
00
0F
F0
00
00
00
D0
0F
00
00
00
00
F0
00
00
EF
00
E1
01
F0
00
00
00
0F
01
00
00
F0
0F
00
00
00
0F
00
01
01
E0
00
01
00
1F
10
01
10
1E
01
00
00
00
00
00
01
00
00
0F
01
00
00
00
00
10
EF
00
00
1F
01
0D
FF
0F
00
00
10
00
01
00
0F
E0
10
01
00
10
00
02
F0
00
00
00
00
01
01
00
01
10
00
00
00
10
00
00
00
0F
F0
01
E0
2D
10
02
01
10
00
0F
00
10
F0
00
01
01
00
01
00
00
00
FF
00
20
00
0F
FF
0D
00
10
F0
00
F0
10
F0
F0
F0
F0
00
01
00
00
00
00
11
00
0F
00
FE
F0
F0
00
00
0E
00
11
00
00
0D
00
E0
D1
F0
01
00
00
00
00
11
11
00
F0
11
00
00
0E
1E
00
01
00
10
01
0F
0F
D1
00
00
10
00
00
01
F0
00
00
10
E0
0D
0F
00
00
00
00
00
0D
00
00
0F
0F
01
0C
0E
E0
F0
00
F0
00
0F
00
FF
0F
0E
10
F0
00
0F
00
D1
00
0F
EF
00
B0
F0
00
0F
00
00
01
11
0F
00
0E
EF
00
00
EF
01
00
00
00
1E
EE
00
00
00
00
00
F0
00
0F
00
C0
00
0E
01
00
F0
00
0F
F0
00
00
02
F1
00
0F
00
F0
1F
0F
00
00
00
00
F1
00
F0
00
00
00
01
F1
11
01
0F
10
00
11
E1
0F
00
E0
00
01
10
F0
03
00
10
00
00
F0
00
00
E0
10
FE
E1
00
10
0D
0F
0E
00
10
11
00
FF
11
00
E1
01
00
E0
00
00
00
E0
00
0E
01
00
00
0F
00
E1
0E
00
E0
00
01
00
00
0F
01
00
00
00
0E
10
00
00
F0
00
10
E0
00
00
01
00
01
00
0F
0F
00
00
10
00
10
20
F0
F1
00
10
0F
00
0F
10
01
01
00
0F
F0
FF
0D
FD
00
00
FF
00
01
00
01
00
0F
00
00
00
00
0F
00
00
01
10
0F
0F
FF
F0
1A
0F
EF
01
F0
10
FF
01
F0
00
1E
E1
0F
00
0F
00
0E
F0
E0
00
0C
0F
F0
01
00
10
00
0C
10
00
0F
00
00
F0
FF
0E
01
00
00
00
F0
01
00
F0
00
00
00
E1
00
0F
00
00
01
0F
00
E1
0F
00
DF
00
00
00
00
0F
00
00
00
00
0D
10
00
00
00
00
00
00
00
00
01
00
01
00
0E
00
00
00
00
00
00
10
00
00
00
10
00
00
00
10
01
10
00
00
00
00
00
01
00
0F
00
00
00
FE
00
0F
F0
0F
00
D0
0E
E0
00
F0
FE
FE
00
0F
00
0F
EC
00
00
1F
FF
10
10
0F
00
F0
2F
F1
E0
F0
00
00
1D
00
00
00
0F
00
00
00
01
11
F0
00
10
10
0F
00
00
00
00
01
00
00
01
0E
00
F1
00
0E
00
0E
01
00
EF
0F
00
FF
00
F0
00
00
00
01
00
EF
E0
E0
00
00
01
00
F0
10
00
00
02
00
00
00
00
00
EF
E0
00
0E
01
0E
F0
00
00
00
00
00
00
10
00
00
01
00
00
E0
00
0E
F0
00
00
1F
10
00
F1
01
F0
F0
00
00
0F
F0
00
EE
01
00
00
0E
00
00
0F
01
F0
00
01
00
1F
10
11
0F
00
E0
0F
00
01
01
F0
00
10
00
00
01
F0
00
E1
F0
10
E0
00
00
00
00
1E
2F
00
02
01
1F
F0
00
00
00
00
01
00
00
00
00
00
00
00
01
00
01
00
02
00
F0
00
00
00
00
00
00
00
00
00
00
00
00
00
0F
01
0F
00
F0
00
2F
11
F1
01
00
10
00
00
00
F0
01
F2
01
10
00
00
00
00
00
0F
2F
F0
0F
0F
0F
00
10
F0
00
00
10
F0
F0
F0
00
0F
0E
0F
0F
00
0F
01
0E
0F
00
0F
E0
00
00
F0
0F
00
11
00
00
FF
F0
00
F1
DF
00
00
01
00
B0
00
01
00
00
10
00
00
FF
1F
FE
00
0F
00
00
00
EF
0F
00
00
F0
00
0E
01
F0
00
F0
10
F0
0F
C0
00
00
00
0F
00
01
00
0E
00
FF
01
00
0F
10
00
0E
00
F0
0F
00
F0
F0
01
EF
00
F0
00
00
01
00
01
11
00
10
02
0F
00
00
10
00
EF
E0
10
0E
12
0E
E0
10
00
00
00
01
01
01
00
00
01
00
00
E0
00
00
00
01
00
00
F0
00
0F
01
00
00
FF
00
01
01
00
00
0E
10
00
00
00
0E
00
0F
00
00
0D
00
DF
E0
10
00
01
01
00
10
00
01
01
00
00
01
00
00
0E
00
01
00
00
00
00
00
E0
01
00
20
00
0F
10
00
11
00
F0
E0
0E
1F
00
00
01
0F
0F
0E
00
FF
00
0F
0F
0E
01
00
00
00
0F
0F
00
00
0F
00
0F
00
00
00
00
00
11
FE
FE
0F
F0
F0
00
F0
0E
10
EF
0F
0F
F0
F0
0F
0F
0E
F0
0F
00
00
00
1F
10
1F
FF
0F
F1
00
F0
F0
1F
00
F0
F0
0F
F0
0F
00
00
0F
D0
00
FF
E0
02
0F
00
F0
FF
0F
F0
F0
0E
00
00
E0
0F
0F
00
00
0E
F1
F0
00
10
11
10
11
10
00
01
F0
11
F1
00
0F
20
00
01
E0
F0
F1
10
0F
00
F1
00
00
00
0F
10
01
00
F0
10
00
10
F0
11
F0
0F
1F
0F
0F
00
00
00
00
0F
00
FF
0F
00
FF
01
00
00
F0
F0
FF
F0
00
00
00
00
0F
FE
00
E0
0F
FF
F0
F2
0F
10
00
FE
00
0F
0F
F0
00
0D
00
DE
00
0F
0F
01
00
00
F0
00
0F
0F
00
00
00
00
0F
E0
0F
00
FE
11
00
F0
01
0E
F0
00
00
01
F1
00
0E
00
00
0F
0E
F0
00
0F
00
F1
00
00
00
00
00
01
F0
00
01
0F
10
01
01
E0
1F
00
FF
00
00
11
F0
01
00
0F
0F
F1
00
11
10
00
20
FE
F1
01
10
FF
0E
1E
00
00
00
0F
EF
EF
F0
00
0F
00
00
00
00
00
00
00
00
0E
00
F0
00
00
0E
00
01
00
00
0D
00
E0
E0
0F
00
00
00
00
00
00
0F
F0
E0
00
F0
00
0F
0D
00
00
00
00
01
0E
0E
E0
00
F0
00
00
F0
00
F0
0F
00
10
E0
0E
F0
00
