11
00
00
00
00
00
00
00
00
00
00
00
00
00
00
00
00
00
00
00
00
00
00
00
00
00
00
00
00
00
00
00
00
00
00
00
00
00
00
00
00
00
00
00
00
00
00
00
00
00
00
00
00
00
00
00
00
00
00
00
00
00
00
00
00
00
00
00
00
00
00
00
00
00
00
00
00
00
00
00
00
00
00
00
00
00
00
00
00
00
00
00
00
00
00
00
00
00
00
00
00
00
00
00
00
00
00
00
00
00
00
00
00
00
00
00
00
00
00
00
00
00
00
00
00
00
00
00
00
00
00
00
00
00
00
00
00
00
00
F0
00
00
00
00
00
00
00
00
00
00
00
00
00
00
00
00
00
00
00
00
00
00
00
00
00
10
10
01
00
00
00
00
00
00
00
00
00
00
11
11
21
01
00
00
00
00
00
FF
FF
00
00
00
00
10
11
E0
00
00
00
00
11
00
FF
FF
00
00
00
0F
F0
BD
00
00
00
00
10
01
F0
FF
FF
FF
EF
EE
CD
BB
00
00
00
00
00
10
01
F0
EF
EE
DE
CD
CC
BC
01
00
00
00
00
00
11
01
00
FF
EE
EE
EE
DE
00
00
00
00
00
00
10
11
01
00
00
00
10
F0
00
00
00
00
00
00
00
11
21
11
11
11
11
01
00
00
00
00
00
00
00
10
11
11
11
11
12
11
00
00
00
00
00
00
00
00
00
11
11
11
11
21
00
00
00
00
00
00
00
00
00
00
00
10
11
11
00
00
00
00
00
00
00
00
00
00
00
00
10
11
00
00
00
00
00
00
00
00
00
00
00
0F
00
00
00
00
00
00
00
00
00
00
00
00
00
00
00
00
00
00
00
00
00
00
00
00
00
00
00
00
00
0F
00
00
00
00
00
00
00
00
00
00
00
00
00
00
11
00
00
00
00
0F
0F
00
00
00
00
00
00
00
00
00
00
00
00
00
00
0F
00
00
00
00
00
00
00
00
00
00
00
00
00
00
00
00
00
00
00
00
00
00
00
00
00
00
00
00
00
00
00
00
00
00
00
00
00
00
00
00
00
00
00
00
00
00
00
00
00
00
00
00
00
00
00
00
00
00
00
00
00
00
00
00
00
00
00
00
00
00
00
00
00
00
00
00
00
00
00
00
00
00
00
00
00
00
00
00
00
00
00
00
00
00
00
00
00
00
00
00
00
00
00
00
00
00
00
00
00
00
00
00
00
00
00
00
00
00
00
00
00
00
00
00
00
00
00
00
00
00
00
00
00
00
00
00
00
00
00
00
00
00
00
00
00
00
00
00
00
00
00
00
00
00
00
00
00
00
00
00
00
00
00
00
00
00
00
F0
00
00
00
00
00
00
00
00
00
00
00
00
FF
FF
00
00
00
00
00
00
00
00
00
00
00
FF
FE
00
00
00
00
00
00
00
0F
00
00
F0
EF
EE
0F
01
00
00
00
00
00
00
FF
FF
EF
DE
EE
0F
10
01
00
00
00
00
00
00
FE
EF
DD
ED
FF
10
11
01
00
00
00
00
00
00
FE
EE
EE
0F
10
11
00
00
00
00
00
00
00
00
FE
FF
0F
10
01
00
00
00
00
00
00
00
00
00
FF
00
00
00
00
00
00
00
00
00
00
00
00
00
0F
00
00
00
00
00
00
00
00
00
00
00
00
00
0F
00
00
00
00
00
00
00
00
00
00
00
00
00
00
00
00
00
00
00
00
00
00
00
00
00
00
00
00
00
00
00
00
00
00
00
00
00
00
00
00
00
00
00
00
00
00
00
00
00
00
00
00
00
00
00
00
00
00
10
10
00
01
00
00
00
00
00
00
00
11
00
00
00
00
00
00
00
00
00
00
00
00
10
01
00
00
00
00
00
00
00
00
00
00
00
00
00
01
00
00
00
00
00
00
00
00
00
00
00
00
00
00
00
00
00
00
00
00
00
00
00
00
00
00
00
00
00
00
00
00
00
00
00
00
00
F0
0F
00
00
00
00
00
00
00
00
00
00
00
00
FF
0F
00
00
00
00
00
00
00
00
00
00
00
00
FF
0F
00
00
00
00
00
00
00
00
00
00
00
00
FF
0F
00
00
00
00
00
00
00
00
00
00
00
00
FF
00
00
00
00
00
00
00
00
00
00
00
00
00
FF
00
00
00
00
00
00
00
00
00
00
00
00
F0
FF
00
00
00
00
00
00
00
00
00
00
00
00
F0
FF
00
00
00
00
00
00
00
00
00
00
00
00
F0
FF
00
00
00
00
00
00
00
00
00
00
00
00
FF
0F
00
00
00
00
00
00
00
00
00
00
00
00
FF
0F
00
00
00
00
00
00
00
00
00
00
00
00
FF
0F
00
00
00
00
00
00
00
00
00
00
00
00
FF
FF
0F
00
00
00
00
00
00
00
00
00
00
00
00
FF
0F
00
00
00
00
00
00
00
00
00
00
00
00
F0
00
00
00
00
00
00
00
00
00
00
00
00
00
00
00
00
00
00
00
00
00
00
00
00
00
00
00
00
00
00
00
00
00
00
00
00
00
00
00
00
00
00
00
00
00
00
00
00
00
00
00
00
00
00
00
00
00
00
00
00
00
00
00
00
00
00
00
00
00
00
00
00
00
00
00
00
00
00
00
00
00
00
00
00
00
00
00
00
00
00
00
00
00
00
00
00
00
00
00
00
00
00
00
00
00
00
00
00
00
00
00
00
00
00
00
00
00
00
00
00
00
00
00
00
00
00
00
00
10
01
00
00
00
00
00
00
00
00
00
00
00
00
00
00
00
00
00
00
00
00
00
00
00
00
00
00
00
01
00
00
00
00
00
00
00
00
00
00
00
00
00
00
00
00
00
00
00
00
00
00
00
00
00
00
00
00
00
00
00
00
00
00
00
00
00
00
00
00
00
00
00
00
00
00
00
00
00
00
00
00
00
00
00
00
00
00
00
00
00
00
00
00
00
00
00
00
00
00
00
00
00
00
00
00
00
00
00
00
00
00
00
00
00
00
00
00
00
00
00
00
00
00
00
00
00
00
00
00
00
00
00
00
00
00
00
00
00
00
00
00
00
00
00
00
00
00
00
00
00
00
00
00
00
00
00
00
00
00
00
00
00
00
00
00
00
00
00
00
00
00
00
00
00
00
00
00
00
00
00
00
00
00
00
00
00
00
00
00
00
00
00
00
00
00
00
00
00
00
00
00
00
00
00
00
00
00
00
00
00
00
00
00
00
00
F0
00
00
00
00
00
00
00
00
00
00
00
00
F0
FF
00
00
00
00
00
00
00
00
00
00
00
00
FF
0F
00
00
00
0F
FF
00
00
00
00
00
00
F0
FE
0F
00
00
F0
FF
FF
0F
00
00
00
00
F0
EE
0F
00
00
00
00
FF
FF
0F
00
00
00
F0
EF
EE
0F
00
00
00
00
FF
FF
0F
00
00
00
F0
EF
FE
00
00
00
00
00
00
FF
0F
00
00
00
FF
FF
0F
00
00
00
00
00
00
F0
0F
00
00
F0
FF
FF
00
01
00
00
00
00
00
00
0F
00
00
F0
0F
0F
00
00
00
00
00
00
00
00
00
F0
00
00
FF
00
00
00
00
00
00
00
00
00
00
F0
00
00
00
00
00
00
00
00
00
00
00
00
00
00
00
00
00
00
00
00
00
00
00
00
00
00
00
00
10
00
00
F0
FF
EE
EE
FE
FF
FF
F0
00
00
00
00
00
00
00
FF
FF
FF
FF
0F
00
F0
00
00
00
00
00
00
00
00
00
00
F0
00
00
00
00
00
00
00
00
00
00
00
00
00
00
00
00
00
00
00
00
00
00
00
00
00
00
00
00
00
00
00
00
00
00
00
00
00
00
00
00
00
00
00
00
00
00
00
00
00
00
00
00
00
00
11
00
00
00
00
00
00
00
00
00
00
00
00
00
11
11
01
00
00
00
00
00
00
00
00
00
00
00
11
11
11
11
01
00
00
00
00
00
00
00
00
00
00
11
11
11
11
10
00
00
00
00
00
00
00
00
00
F0
FF
00
00
00
00
00
00
00
00
00
00
00
F0
FF
FF
FF
0F
00
00
00
00
00
00
00
00
00
F0
FF
FF
FF
00
00
00
00
00
00
00
00
00
00
F0
FF
0F
00
F0
00
00
00
00
00
00
00
00
00
00
00
00
00
00
00
00
00
00
00
00
00
00
00
00
00
00
00
00
00
00
00
00
00
00
00
00
00
00
00
00
00
00
00
00
00
00
00
00
00
00
00
00
00
00
00
00
00
00
00
00
00
00
00
00
00
00
00
00
00
00
00
00
00
00
00
00
00
00
00
00
00
00
00
00
00
00
00
00
00
00
00
00
00
00
00
00
00
00
00
00
00
00
00
00
00
00
00
00
00
00
00
00
00
00
00
00
00
00
00
00
00
00
00
00
00
00
00
00
00
00
00
00
00
00
00
00
00
00
00
00
00
00
00
00
00
00
00
00
00
00
00
00
00
00
00
00
00
00
00
00
00
00
00
00
00
00
00
00
00
00
00
00
00
00
00
00
00
00
00
00
00
00
00
00
00
00
00
00
00
00
00
00
00
00
00
00
00
00
00
00
01
00
00
00
00
00
00
00
00
00
00
00
00
00
00
00
00
00
00
00
00
00
00
00
00
00
00
00
01
00
00
00
00
00
00
00
00
00
00
00
00
00
00
00
00
00
00
00
00
00
00
00
00
00
00
00
00
00
00
00
00
00
00
00
00
00
00
00
00
00
00
00
00
00
00
00
00
00
00
00
00
00
00
00
00
00
00
00
00
00
00
00
00
00
00
00
00
00
00
00
00
00
00
00
00
00
00
00
00
00
00
00
00
00
00
00
00
00
00
00
00
00
00
00
00
00
00
00
00
00
00
00
00
00
00
00
00
00
00
00
00
00
00
00
00
00
00
00
00
00
00
00
00
00
00
00
00
00
00
00
00
00
00
00
00
00
00
F0
00
00
00
00
00
00
00
00
00
00
00
00
00
FF
00
00
00
00
00
00
00
00
00
00
00
F0
FF
FF
00
00
00
00
00
00
00
00
00
00
00
FF
FF
FF
00
00
00
00
00
00
00
00
00
00
F0
FF
FF
FF
00
00
00
00
00
00
00
00
10
01
00
00
00
00
00
00
00
00
00
10
00
00
10
11
11
11
11
11
00
00
00
00
00
10
00
F0
0F
11
11
11
11
10
00
00
00
00
00
10
F0
FF
FF
10
11
11
11
11
00
00
00
00
00
11
00
FF
EF
0F
11
11
00
11
00
00
00
00
00
10
00
F0
EF
FE
10
10
10
01
00
00
00
00
00
10
01
00
EF
ED
00
00
10
01
00
00
00
00
00
00
10
00
E0
DD
0E
00
10
00
00
00
00
00
00
00
10
11
F1
DE
ED
0F
00
00
00
00
00
00
00
00
00
11
01
EF
DD
FE
00
00
00
00
00
00
00
00
00
10
01
F0
EE
EE
FF
0F
00
00
00
00
00
00
00
11
11
F0
EF
ED
EE
0F
01
00
00
00
00
00
F0
00
00
F0
00
00
00
00
00
00
00
F0
0F
00
FF
F0
00
00
00
00
00
00
00
00
00
F0
0F
FF
F0
FF
F0
00
0F
00
00
00
00
00
0F
F0
FF
FF
FF
FF
FF
00
00
0F
00
00
00
F0
FF
FF
FF
FF
FF
FF
FF
FF
0F
0F
0F
00
00
FF
FF
FF
FF
FF
FF
FF
FF
FF
FF
FF
00
00
00
FF
F0
FF
FF
FF
FF
FF
00
F0
00
00
00
00
00
00
00
F0
FF
FF
FF
0F
00
00
0F
00
F0
00
00
00
00
00
00
0F
0F
FF
0F
00
00
00
00
00
00
00
00
00
00
00
00
00
00
00
00
00
00
00
00
00
00
00
00
00
00
00
00
00
00
00
00
00
00
00
00
00
00
00
00
00
00
00
00
00
00
00
00
00
00
00
00
00
00
00
00
00
00
00
00
00
00
00
00
00
00
00
00
00
00
00
00
00
00
10
00
00
00
00
00
00
00
00
00
00
00
00
00
10
00
00
00
00
00
00
00
00
00
00
00
00
00
00
00
00
00
00
00
00
00
00
00
00
00
00
00
00
00
00
00
00
00
00
00
00
00
00
00
00
00
00
00
00
00
00
00
00
00
00
00
00
00
00
00
00
00
00
00
00
00
00
00
00
00
00
00
00
00
00
00
00
00
00
00
00
00
00
00
00
00
00
00
00
00
00
00
00
00
00
00
00
00
00
00
00
00
00
00
00
00
00
00
00
00
00
00
00
00
00
00
00
00
00
00
00
00
00
00
00
00
00
00
00
00
00
00
00
00
00
00
00
00
00
00
00
00
00
00
00
00
00
00
00
00
00
00
00
00
00
00
00
00
00
00
00
00
00
00
00
00
00
00
00
00
00
00
00
00
00
00
00
00
00
00
00
00
00
00
00
00
00
11
00
00
00
00
00
00
00
00
00
00
00
00
00
01
00
00
00
00
00
00
00
00
00
00
00
00
00
00
00
00
00
00
00
00
00
00
00
00
00
00
00
00
00
00
00
00
00
00
00
00
00
00
00
00
00
00
00
00
00
00
00
00
00
00
00
00
00
00
00
00
00
00
00
00
00
00
00
00
00
00
00
00
00
00
00
00
00
00
00
00
00
00
00
00
00
00
00
00
00
00
00
00
00
00
00
00
00
00
00
00
00
00
00
00
00
00
00
00
00
00
00
00
00
00
00
00
00
00
00
00
00
00
00
00
00
00
00
00
00
00
00
00
00
00
00
00
00
00
00
00
00
00
00
00
00
00
00
00
00
00
00
00
00
00
00
00
00
00
00
00
00
00
00
00
00
00
00
00
00
00
00
00
00
00
00
00
00
00
00
00
00
00
00
00
00
00
00
00
00
00
00
00
00
00
00
00
00
00
00
00
00
00
00
00
00
00
00
00
00
00
00
00
00
00
00
00
00
00
00
00
00
00
00
00
00
00
10
00
00
00
00
00
00
00
00
00
00
00
00
00
10
00
00
00
00
00
00
00
00
00
00
00
10
01
11
00
00
10
11
10
11
11
11
11
01
00
00
00
00
00
00
00
01
10
11
11
11
11
11
01
00
00
00
00
00
00
00
00
00
00
00
10
00
00
00
00
00
00
00
00
00
00
00
00
00
00
00
00
00
00
00
00
00
00
00
00
00
00
FF
0F
FF
FF
FF
FF
FF
00
00
00
00
FF
FF
FF
FF
EF
FE
FE
FF
FF
F0
00
00
F0
FF
FF
FF
EE
EE
EF
EE
FF
FF
FF
0F
00
00
F0
FF
FF
FF
FF
FF
FF
FF
FF
FF
FF
0F
00
00
00
FF
00
FF
00
F0
FF
FF
FF
F0
00
00
11
00
00
00
00
00
00
F0
FF
FF
00
00
00
10
01
00
00
00
00
00
00
F0
F0
0F
00
00
00
00
01
00
00
F0
00
00
00
FF
FF
0F
00
00
00
00
01
00
00
00
FF
00
F0
FF
FF
0F
00
00
00
00
01
00
00
00
FF
FF
FF
FF
FF
0F
00
00
00
00
00
00
00
00
FF
FF
FF
FF
FF
00
00
00
00
00
00
00
00
00
FF
FF
FF
FF
FF
00
00
00
00
00
00
00
00
00
F0
FF
FF
FF
FF
00
00
00
00
00
00
00
00
00
00
FF
FF
FF
0F
00
00
00
00
00
00
00
00
00
00
00
FF
FF
0F
00
00
00
00
00
00
00
00
00
00
00
FF
FE
0F
00
00
00
00
00
00
00
00
00
00
00
F0
FF
0F
00
00
00
00
00
00
00
00
00
00
00
00
00
00
00
00
00
00
00
00
00
00
00
00
00
00
00
00
00
00
00
00
00
00
00
00
00
00
00
00
00
00
00
00
00
00
00
00
00
00
00
00
00
00
00
00
00
00
00
00
00
00
00
00
00
00
00
00
00
00
00
00
00
00
00
00
00
00
00
00
00
00
00
00
00
00
00
00
00
00
00
00
00
00
00
00
00
00
00
00
00
00
00
00
00
00
00
00
00
00
00
00
00
00
00
00
00
00
00
00
00
00
00
00
00
00
00
00
00
00
00
00
00
00
00
00
00
00
00
00
00
00
00
00
00
00
00
00
00
00
00
00
00
00
00
00
00
00
00
00
00
00
00
00
00
00
00
00
00
00
00
00
00
00
00
00
00
00
00
00
00
00
00
00
00
00
00
00
00
00
00
00
00
00
00
00
00
00
00
00
00
00
00
00
00
00
00
00
00
00
00
00
00
00
00
00
00
00
00
00
00
00
00
00
00
00
00
00
00
00
FF
FF
FF
FF
FF
FF
FF
FF
FF
0F
00
00
00
00
FF
FF
FF
FF
FF
FF
FF
FF
0F
00
00
00
00
00
F0
FF
FF
FF
FF
F0
F0
00
00
00
00
00
00
00
F0
00
00
00
00
00
00
00
00
00
00
00
00
00
00
00
00
00
00
00
00
00
00
00
00
00
00
00
00
00
00
00
00
00
00
00
00
00
00
00
00
00
00
00
00
00
00
00
00
00
00
00
00
00
00
00
00
00
00
00
00
00
00
00
00
00
00
00
00
00
00
00
00
00
00
00
00
00
00
00
00
00
00
00
00
00
00
00
00
00
00
00
00
00
00
00
00
00
00
00
00
00
00
00
00
00
00
00
00
00
00
01
00
00
00
00
00
00
00
00
00
00
00
00
00
01
00
00
10
00
00
00
00
00
00
00
00
00
00
11
00
00
10
00
00
00
00
00
00
00
00
00
00
01
00
00
00
00
00
00
00
00
00
00
00
00
00
01
00
00
00
00
00
00
00
00
00
00
00
00
00
00
00
00
00
00
00
00
00
00
00
00
00
00
00
00
00
00
00
00
00
00
00
00
00
00
00
00
00
00
00
00
00
00
00
00
00
00
00
00
00
00
00
00
00
00
00
00
00
00
00
00
00
00
00
00
00
00
00
00
00
00
00
00
00
00
00
00
00
00
00
00
00
00
00
00
00
00
00
00
00
00
00
00
00
00
00
00
00
00
00
00
00
00
00
00
00
00
00
00
00
00
00
00
00
00
00
00
00
00
00
00
00
00
00
00
00
00
00
00
00
00
00
00
00
00
00
00
00
00
00
00
00
00
00
00
00
00
00
00
00
00
00
00
00
00
00
00
00
00
00
00
00
00
00
00
00
00
00
00
00
00
00
00
00
00
00
00
00
01
00
00
10
00
00
00
00
00
00
00
00
00
00
00
00
00
00
00
00
00
00
00
00
00
00
00
00
00
00
00
00
00
00
00
00
00
00
00
00
00
00
0F
00
00
00
00
00
00
00
00
00
00
00
00
00
00
00
00
00
00
00
00
00
00
00
00
00
00
00
00
00
00
00
00
00
00
00
00
00
00
00
00
00
00
00
00
00
00
00
00
00
00
00
00
00
00
00
00
00
00
00
00
00
00
00
00
00
00
00
00
00
00
00
00
00
00
00
00
00
00
00
00
00
00
00
00
00
00
00
00
00
00
00
00
00
00
00
00
00
00
00
00
00
00
00
00
00
00
00
00
00
00
00
00
01
00
00
00
00
00
00
00
00
00
00
00
00
00
00
00
00
00
00
00
00
00
00
00
00
00
00
0F
01
00
00
F0
00
00
00
00
00
00
00
00
00
FF
10
01
00
01
00
00
00
00
00
00
00
00
00
EE
0F
11
11
11
11
11
00
00
00
00
00
00
00
EE
DD
0F
10
11
11
11
11
11
00
00
00
00
00
EF
CD
BB
DC
0F
00
00
00
00
00
00
00
00
00
F0
EF
CE
BB
CB
ED
FE
FF
0F
00
00
00
00
00
11
11
11
F0
DE
DD
FE
0F
00
00
00
00
00
00
12
22
22
22
12
00
FF
00
00
00
00
00
00
00
11
11
11
11
11
11
01
00
00
00
00
00
00
00
00
10
00
00
01
11
00
00
00
00
00
00
00
00
00
00
00
00
00
00
00
00
00
00
00
00
00
00
00
00
00
00
00
00
00
00
00
00
00
00
00
00
00
00
00
00
00
00
00
00
00
00
00
00
00
00
00
0F
00
00
00
00
00
00
00
00
00
00
00
00
0F
00
00
00
00
00
00
00
00
00
00
00
00
00
11
00
00
00
00
00
11
00
00
00
F0
FF
0F
00
00
00
00
00
00
00
00
00
00
00
00
FF
0F
00
00
00
00
00
00
00
00
00
00
00
00
FF
0F
10
00
00
00
00
00
00
00
01
00
00
00
EF
0F
10
00
00
00
00
00
00
00
01
00
00
00
FF
0F
10
00
00
00
00
00
00
00
11
00
00
00
FF
0F
11
00
00
00
00
00
00
00
10
00
00
F0
EE
0F
11
00
00
00
00
00
00
0F
10
01
00
F0
EE
0F
11
00
00
00
00
00
F0
FF
10
11
00
F0
EE
1F
11
00
00
00
00
00
00
FF
10
11
00
F0
ED
1F
11
00
00
00
00
00
00
FF
1F
11
00
E0
EE
10
11
00
00
00
00
00
00
F0
10
11
00
E0
FE
10
11
00
00
00
00
00
00
00
10
11
00
EF
0F
11
01
00
00
00
00
00
00
00
10
01
00
FF
0F
11
00
00
00
00
00
00
00
00
10
00
F0
0F
10
01
00
00
00
00
00
00
00
00
00
00
00
00
00
00
00
00
00
00
00
00
00
00
00
00
00
00
00
00
00
00
00
00
00
00
00
00
00
00
00
00
00
00
00
00
00
00
00
00
00
00
00
00
00
00
00
00
00
00
00
00
00
00
00
00
00
00
00
00
00
00
00
00
00
00
00
00
00
00
00
00
00
00
00
00
00
00
00
00
00
00
00
00
00
00
00
00
00
00
00
00
00
00
00
00
00
00
00
00
00
00
00
00
00
00
00
00
00
00
00
00
00
00
00
00
00
00
00
00
00
00
00
00
00
00
00
00
00
00
00
00
00
00
00
00
00
00
00
00
00
00
00
00
00
00
00
00
00
00
00
00
00
00
00
00
00
00
00
00
00
10
00
00
00
00
00
00
00
00
00
00
00
00
00
10
00
00
00
00
00
00
00
00
00
00
00
00
00
01
00
00
00
00
00
00
00
F0
00
00
00
00
00
10
11
11
00
00
00
00
00
00
00
00
00
00
00
10
22
12
11
11
00
00
00
00
00
00
00
00
00
10
21
22
22
22
11
11
01
01
00
00
00
00
00
0F
10
21
22
23
22
22
11
11
00
00
00
00
00
FE
0F
00
00
00
00
00
00
00
00
00
00
00
00
ED
DD
CC
CC
CC
DD
EE
FF
0F
00
00
00
00
00
DD
BB
AA
BA
DC
EE
FE
FF
00
00
00
00
00
00
EE
EE
EE
FF
FF
F0
00
00
00
00
00
00
00
00
10
00
11
11
11
11
00
00
00
00
00
00
00
00
10
11
11
11
11
11
11
00
00
00
00
00
00
00
01
01
00
01
00
00
00
00
00
00
00
00
00
00
00
00
00
00
00
00
00
00
00
00
00
00
00
00
F0
0F
F0
00
00
00
0F
00
00
00
00
00
00
00
00
00
00
00
00
00
00
00
00
00
00
00
00
00
00
00
00
00
00
00
00
00
00
00
00
00
00
00
00
00
00
00
00
00
00
00
00
00
00
00
00
00
00
00
00
00
00
00
00
00
00
00
00
00
00
00
00
00
00
00
00
00
00
00
00
00
00
00
00
10
00
00
00
00
00
00
00
00
00
00
00
00
00
10
00
00
00
00
00
00
00
00
00
00
00
00
00
00
00
00
00
00
00
00
00
00
00
00
00
00
00
00
00
00
00
00
00
00
00
00
00
00
00
00
00
00
00
00
00
00
00
00
00
00
00
00
F0
00
00
00
00
00
00
00
00
00
00
00
00
00
00
00
00
10
00
00
00
00
00
00
00
00
00
00
00
00
00
00
01
00
00
00
00
00
00
00
00
00
00
00
00
10
01
00
00
00
00
00
00
00
00
00
00
00
00
00
00
00
00
00
00
00
00
00
00
00
00
00
00
00
00
00
00
00
00
00
00
00
00
00
00
00
00
00
00
00
00
00
00
00
00
00
00
00
00
00
00
00
00
00
00
00
00
00
00
00
00
00
00
00
00
00
00
00
00
00
00
00
00
00
00
00
00
00
00
00
00
00
00
00
00
00
00
00
00
00
00
00
00
00
00
00
00
00
00
00
00
00
00
00
00
00
00
00
00
00
00
00
00
00
00
00
00
00
00
00
00
00
00
00
00
00
00
00
00
00
00
00
00
00
F0
FF
00
00
00
00
00
00
00
00
00
00
00
00
00
F0
00
00
00
00
00
00
00
00
00
00
00
00
00
00
00
00
00
00
00
00
00
00
00
00
00
00
00
00
00
00
00
00
00
00
00
00
00
00
00
00
00
00
00
00
00
00
00
00
00
00
00
00
00
00
00
00
00
00
00
00
00
00
00
00
00
00
00
00
00
00
00
00
00
00
00
00
00
00
00
00
00
00
00
00
00
00
00
00
00
00
00
00
00
00
00
00
01
00
00
00
00
00
F0
00
00
00
00
00
00
10
00
00
00
00
00
00
00
00
00
00
11
11
00
00
00
00
00
00
00
11
11
11
11
11
11
10
00
00
00
00
00
10
00
11
11
11
01
01
00
00
00
00
00
00
00
00
00
00
00
00
00
00
00
00
00
00
00
00
00
00
00
00
00
00
00
00
00
00
FF
FF
FF
00
00
00
00
00
00
00
00
00
FF
FF
EE
FF
FF
F0
00
00
00
00
00
00
FF
FF
EF
EE
EE
FF
FF
0F
00
00
00
00
F0
FF
EF
EE
EE
EE
FF
FF
0F
00
00
00
00
FF
FF
EE
EE
EF
FF
FF
00
00
00
00
00
00
00
00
FF
0F
00
00
00
00
00
00
00
00
00
00
00
00
00
00
00
00
00
00
00
00
00
00
00
00
00
00
00
00
00
00
00
00
00
00
00
00
00
00
00
00
00
00
00
00
00
00
00
00
00
00
00
00
00
00
00
00
00
00
00
00
00
00
00
00
00
00
00
00
00
00
00
00
00
00
00
00
00
00
00
00
00
00
00
00
00
00
00
00
00
00
00
10
00
00
00
00
00
00
00
00
00
00
00
00
00
00
00
00
00
00
00
00
00
00
00
F0
00
10
01
00
00
00
00
00
00
00
00
00
00
FF
0F
11
10
10
00
00
00
00
00
00
00
00
00
EF
1F
01
00
10
00
00
00
00
00
00
00
00
00
EF
1F
11
00
10
00
00
00
00
00
00
00
00
00
DE
1F
01
00
00
00
00
00
00
00
00
00
00
F0
EE
10
01
00
10
00
00
00
00
00
00
00
00
F0
EE
10
01
00
10
00
00
00
00
00
00
00
00
FF
FE
11
00
00
00
00
00
00
00
00
00
00
00
FF
0F
11
00
00
00
00
00
00
00
00
00
00
F0
FF
00
01
00
00
00
00
00
00
00
00
00
00
F0
0F
00
00
00
00
00
00
00
00
00
00
00
00
00
00
00
00
00
00
00
00
00
00
00
00
00
00
00
00
00
00
00
00
00
00
00
00
00
00
00
00
00
00
00
00
00
00
00
00
00
00
00
00
00
00
00
00
00
00
00
00
00
00
00
00
00
00
00
00
00
00
00
00
00
00
00
00
00
00
00
00
00
00
00
00
00
00
00
00
00
00
00
00
00
00
00
00
00
00
00
00
00
00
00
00
00
00
00
00
00
00
00
00
00
00
00
00
00
00
00
00
00
00
00
00
00
00
00
00
00
00
00
00
00
00
FF
F0
00
00
00
FF
FF
FF
F0
FF
00
00
00
00
00
00
00
00
00
00
00
F0
F0
FF
00
00
00
00
FF
00
00
00
00
00
00
00
F0
0F
0F
00
0F
00
FF
0F
00
00
00
00
00
00
00
FF
0F
00
00
00
00
F0
00
00
00
00
00
00
00
F0
FF
00
00
00
00
00
00
00
00
00
00
00
00
F0
FF
00
00
00
00
00
00
00
00
00
00
00
00
0F
FF
00
00
00
00
00
00
00
00
00
01
00
00
00
FF
00
00
00
00
00
00
00
FF
00
11
00
00
00
F0
00
00
00
00
00
00
00
F0
0F
10
00
01
00
FF
00
00
00
00
00
00
00
F0
FF
10
01
00
00
FF
00
00
00
00
00
00
00
F0
EF
10
01
00
00
FF
01
00
00
00
00
00
00
F0
EE
10
01
10
00
F0
00
00
00
00
00
00
00
F0
EE
20
01
00
00
F0
00
00
00
00
00
00
00
F0
EE
21
01
00
00
FF
00
00
00
00
00
00
00
F0
FE
11
00
00
00
F0
00
00
00
00
00
00
00
FF
0F
11
00
00
F0
FF
00
00
00
00
00
00
00
F0
00
01
00
00
F0
00
00
00
00
00
00
00
00
F0
10
00
00
00
00
00
00
00
00
00
00
00
00
00
00
00
00
00
00
00
00
00
00
00
00
00
00
00
00
00
00
00
00
00
00
00
00
00
00
00
00
00
00
00
00
00
00
00
00
00
00
00
00
00
00
00
00
00
00
00
00
00
00
00
00
00
00
00
00
00
00
00
00
00
00
00
00
00
00
00
00
00
00
00
00
00
00
00
00
00
00
00
00
00
00
00
00
00
00
00
00
00
00
00
00
00
00
00
00
00
00
00
00
00
00
00
00
00
00
00
00
00
00
00
00
00
00
00
00
00
00
00
00
00
01
10
11
11
00
00
00
00
00
00
00
10
00
FF
00
00
00
00
00
00
00
00
00
00
F0
00
00
0F
00
00
00
F0
00
00
00
00
00
00
00
00
00
0F
00
00
00
00
00
00
00
00
00
00
00
00
00
00
00
00
00
00
00
00
00
00
00
00
00
00
01
01
00
00
00
00
00
00
00
00
00
00
00
00
11
10
00
00
00
00
00
00
00
10
00
00
00
00
11
10
00
11
00
00
00
00
00
00
00
00
00
00
11
11
11
11
11
11
01
00
00
00
00
00
00
00
10
11
21
11
12
12
11
11
01
00
00
00
00
00
1F
11
22
11
11
11
00
00
00
00
00
00
00
00
FD
0F
00
F0
EF
EE
FF
FF
00
00
00
00
00
00
CB
CC
CC
CC
DC
ED
FE
FF
00
00
00
00
00
00
CB
AB
AA
DC
FE
FF
00
00
00
00
00
00
00
00
ED
EE
FE
00
11
11
01
00
00
00
00
00
00
00
0F
11
11
11
11
11
10
00
00
00
00
00
00
00
10
11
11
01
00
00
00
00
00
00
00
00
00
00
01
00
00
00
00
00
00
00
00
00
00
00
00
00
00
00
00
00
00
00
00
00
00
00
00
00
00
00
00
00
00
00
00
00
00
00
00
00
00
00
00
00
00
00
00
00
00
00
00
00
00
00
00
00
00
00
00
00
00
00
00
00
00
00
00
00
00
00
00
00
00
00
00
00
00
00
00
00
00
00
00
00
00
00
00
00
00
00
00
00
00
00
00
00
00
00
00
00
00
00
00
00
00
00
00
00
00
00
00
00
00
01
00
00
00
00
00
00
00
00
00
00
00
00
00
00
00
00
00
00
00
00
00
00
00
00
00
00
00
00
01
00
00
00
00
00
00
00
00
00
00
00
00
00
11
00
00
00
00
00
00
00
F0
FF
EE
FF
00
11
00
00
00
00
00
00
00
00
00
00
FF
FF
00
10
00
00
00
00
00
00
00
00
00
00
FF
FE
0F
00
00
00
00
00
00
00
00
00
00
00
F0
FE
0F
00
00
00
00
00
00
00
00
00
00
00
F0
FE
0F
00
00
00
00
00
00
00
00
00
00
00
00
EF
FF
00
00
00
00
00
00
00
00
00
10
00
00
EF
FF
00
00
00
00
00
00
00
00
00
11
00
00
EF
FE
00
00
00
00
00
00
00
0F
00
11
00
00
FF
FE
00
00
00
00
00
00
00
00
0F
11
00
00
F0
FE
00
00
00
00
00
00
00
F0
0F
10
11
00
F0
FE
00
00
00
00
00
00
00
00
0F
10
10
00
F0
FE
00
00
00
00
00
00
00
00
FF
10
00
00
F0
FF
00
00
00
00
00
00
00
00
0F
10
01
00
F0
FF
00
00
00
00
00
00
00
00
0F
11
01
00
00
FF
00
00
00
00
00
00
00
00
00
00
00
00
00
00
00
00
00
00
00
00
00
00
00
00
00
00
00
00
00
00
00
00
00
00
00
00
00
00
00
00
00
00
00
00
00
00
00
00
00
00
00
00
00
00
00
00
00
00
00
00
00
00
00
00
00
00
00
00
00
00
00
00
00
00
00
00
00
00
00
00
00
00
00
00
00
00
00
00
00
00
00
00
00
00
00
00
00
00
00
00
00
00
00
00
00
00
00
00
00
00
00
00
00
00
00
00
00
00
00
00
00
00
00
00
00
00
00
00
00
00
00
00
00
00
00
00
00
00
00
00
00
00
00
00
00
00
00
00
00
00
00
00
00
00
00
00
00
00
00
00
00
00
00
00
00
00
00
00
00
00
00
00
00
00
00
00
00
00
00
00
00
00
00
12
01
00
00
00
FF
FF
0F
00
00
00
00
00
10
01
01
00
00
00
F0
FF
00
00
00
00
00
00
00
01
00
00
00
00
F0
0F
00
00
00
00
00
00
00
01
00
00
00
00
FF
FF
00
00
00
00
00
00
00
01
00
00
00
00
FF
0F
00
00
00
00
00
00
00
00
00
00
00
00
FF
0F
00
00
00
00
00
00
00
00
00
00
00
F0
FF
0F
00
00
00
00
00
00
00
00
00
00
00
0F
FF
0F
00
00
00
00
00
00
00
00
00
00
FF
FF
FF
FF
00
00
00
00
00
01
10
00
00
F0
00
FF
FF
00
00
00
00
00
01
00
10
00
00
00
0F
0F
00
00
01
00
00
00
11
11
11
00
00
00
F0
0F
00
00
00
00
F0
FF
00
00
01
00
00
0F
00
00
00
00
00
00
FF
DE
EE
FF
FF
00
00
00
00
00
00
00
00
00
FF
EF
CD
ED
EF
00
00
00
00
00
00
00
00
00
00
00
EF
EE
EE
F0
00
00
00
00
00
00
00
00
00
10
01
FF
EE
00
00
00
00
00
00
00
00
00
00
00
00
F0
FF
00
00
00
00
00
00
00
00
00
00
00
00
00
F0
00
00
00
00
00
00
00
00
00
00
00
00
00
F0
00
00
00
00
00
00
00
00
00
00
00
00
00
00
00
00
00
00
00
00
00
00
00
00
00
00
00
00
00
00
00
00
00
00
00
00
00
00
00
00
00
00
00
00
00
00
00
00
00
00
00
00
00
00
00
00
00
00
00
00
00
00
00
00
00
00
00
00
00
00
00
00
00
00
00
00
00
00
00
00
00
00
00
00
00
00
00
00
00
00
00
00
00
00
00
00
00
00
00
00
00
00
00
00
00
00
00
00
00
00
00
00
11
01
00
00
00
00
00
00
00
00
00
00
00
10
00
00
00
10
00
00
00
00
01
00
00
00
00
00
00
00
00
00
00
00
00
00
00
00
00
00
00
00
00
00
00
00
00
00
00
00
00
00
00
00
00
00
00
00
00
00
00
00
00
00
00
00
00
00
00
00
00
00
00
00
00
00
00
00
00
00
00
00
00
00
00
00
00
00
00
00
00
00
00
00
00
00
00
00
00
00
00
00
00
00
00
00
00
00
00
00
00
00
00
00
00
00
00
00
00
00
00
00
00
00
00
00
00
00
00
00
00
00
00
00
00
00
00
00
00
00
00
00
00
00
00
00
00
00
00
00
00
00
00
00
00
00
00
00
00
00
00
00
00
00
00
00
00
00
00
00
00
00
00
00
00
00
00
00
00
00
00
00
00
00
00
00
00
00
00
00
00
00
00
00
00
00
00
00
00
00
00
00
00
00
00
00
00
00
00
00
00
00
00
00
00
00
00
00
00
00
00
00
00
00
00
00
00
00
00
00
00
00
00
00
00
00
00
00
00
00
00
00
00
00
00
00
00
00
00
00
00
00
00
00
00
00
00
00
00
00
00
00
00
00
00
00
00
00
00
00
00
00
00
00
00
00
00
00
00
00
00
00
00
00
00
00
00
00
00
00
00
00
00
00
00
00
00
FF
0F
00
00
00
00
00
00
00
00
00
00
00
FF
FF
FF
FF
00
00
00
00
00
00
00
00
00
00
F0
FF
FF
FF
FF
00
00
00
00
00
00
00
00
00
00
F0
FF
FF
FF
F0
FF
00
00
00
00
00
00
00
00
00
FF
FF
FF
FF
FF
FF
00
0F
0F
F0
00
00
00
F0
F0
FF
FF
FF
FF
FF
FF
FF
00
F0
00
00
00
00
00
FF
FF
FF
FF
FF
FF
FF
00
00
00
00
00
F0
00
FF
FF
FF
FF
FF
FF
FF
0F
00
11
00
00
00
00
00
00
00
00
00
00
00
00
00
01
00
00
00
00
00
00
00
00
00
00
00
00
10
01
00
00
00
00
00
00
00
00
00
00
00
00
00
00
00
00
00
00
00
00
00
00
00
00
00
00
00
00
00
00
00
00
00
00
00
00
00
00
00
00
00
00
00
00
00
00
00
00
00
00
00
00
00
00
00
01
00
00
00
00
00
00
00
00
00
00
00
00
00
00
00
00
00
00
00
00
10
00
00
00
00
00
00
00
00
00
00
00
00
00
00
00
00
00
00
00
00
00
00
00
00
11
00
EF
FE
00
00
00
00
00
00
00
00
00
00
00
DE
ED
FF
00
00
00
00
00
00
00
00
00
F0
DF
ED
0F
00
00
00
00
00
00
00
00
F0
FF
EF
ED
0F
00
00
00
00
00
00
00
00
0F
F0
EF
EE
0F
00
00
00
00
00
00
00
00
00
FF
EF
EE
0E
00
00
00
00
00
00
00
00
00
00
FF
FF
FF
00
00
00
00
00
00
00
00
00
00
00
FF
0F
00
00
00
00
00
00
00
00
00
00
00
00
0F
00
00
00
00
00
00
00
00
00
00
00
00
00
00
00
00
00
00
00
00
00
00
00
00
00
00
00
00
00
00
00
00
00
00
00
00
00
00
00
00
00
00
00
00
00
00
00
00
00
00
00
00
00
00
00
00
00
00
00
00
00
00
00
00
00
00
00
00
00
00
00
00
00
00
00
00
00
00
00
00
00
00
00
00
00
00
00
00
00
00
00
00
00
00
00
00
00
00
00
00
00
00
00
00
00
00
00
00
00
00
00
00
00
00
00
00
00
00
00
00
00
00
00
00
00
00
00
00
00
00
00
00
00
00
00
00
00
00
00
01
00
00
00
00
00
00
00
00
00
00
00
00
10
00
00
00
00
00
00
00
00
00
00
00
00
00
00
00
00
00
00
00
00
00
00
00
00
00
00
00
00
00
00
00
00
00
00
00
00
00
00
00
00
00
00
00
00
00
00
00
00
00
00
00
00
00
00
00
00
00
00
00
00
00
00
00
00
00
00
00
00
00
00
00
00
00
00
00
00
00
00
00
00
00
00
00
00
00
00
00
00
00
00
00
00
00
00
00
00
00
00
00
00
00
00
00
00
00
00
00
00
00
00
00
00
00
00
00
00
00
00
00
00
00
00
00
00
00
00
00
00
00
00
00
00
00
00
00
00
00
00
00
00
00
00
00
00
00
00
00
00
00
00
00
00
00
00
00
00
00
00
00
00
00
00
00
00
00
00
00
00
00
00
00
00
00
00
00
00
00
00
00
00
00
00
00
00
00
00
00
00
00
00
00
00
00
00
00
0F
00
00
00
00
00
00
00
00
00
00
00
00
00
00
00
00
00
00
00
00
00
00
00
00
00
00
00
00
00
00
00
00
00
00
00
00
00
00
00
00
00
00
00
00
00
00
00
00
00
00
00
00
00
00
00
10
00
00
00
00
00
00
00
00
FF
00
00
00
01
10
00
00
00
00
00
00
00
00
00
00
00
10
00
10
01
01
11
00
00
00
00
00
11
11
01
11
00
10
11
00
00
11
11
11
11
11
11
11
11
01
00
00
00
00
10
01
11
11
11
11
01
11
00
00
00
00
00
00
00
00
00
00
10
00
00
00
00
00
00
00
00
00
00
00
00
00
00
00
00
00
00
00
00
00
00
00
00
00
00
00
F0
FF
FF
FF
FF
FF
FF
00
00
00
00
00
00
00
FF
FF
FF
EE
EF
FE
FF
FF
00
00
FF
FF
FF
EE
EE
DD
DD
ED
EE
EE
FF
FF
11
01
00
01
00
00
00
00
00
00
00
00
00
00
00
00
00
00
00
00
00
00
00
00
00
00
00
00
00
00
00
00
00
00
00
00
00
00
00
00
00
00
0F
00
00
10
00
00
00
00
00
00
00
00
00
00
0F
00
00
00
00
00
00
00
00
00
00
00
00
00
F0
0F
00
00
00
00
00
00
00
00
00
00
00
00
FF
FF
00
00
10
00
00
00
00
00
00
00
00
00
FF
FF
F0
00
10
01
00
00
00
00
00
00
00
00
FF
FF
FF
0F
10
11
00
00
00
00
00
00
00
10
FF
EF
EE
FF
00
11
11
00
00
00
00
00
00
11
FF
EF
EE
ED
FE
10
11
11
00
00
00
00
00
00
00
FF
EF
DD
ED
FE
10
11
00
00
00
00
00
00
00
00
00
EF
DE
EE
0E
11
00
00
00
F0
FF
FF
11
11
11
01
FF
EE
EE
00
00
00
00
00
0F
FF
01
10
11
11
01
00
EF
0F
00
00
00
00
00
F0
00
00
00
10
11
11
F0
FF
00
00
00
00
00
F0
00
00
00
00
00
00
00
F0
00
00
00
00
00
F0
00
00
00
00
00
00
00
00
00
00
00
00
00
00
00
00
00
00
00
00
00
00
00
00
00
00
00
00
00
00
00
00
00
00
00
00
00
00
00
00
00
00
00
00
00
00
00
00
00
00
00
00
00
00
00
00
00
00
00
00
00
00
00
00
00
00
00
00
00
00
00
00
00
00
00
00
00
00
00
00
00
00
00
00
00
00
00
00
00
00
00
00
00
00
00
00
00
00
00
00
00
00
00
00
00
00
00
00
00
00
00
00
00
00
00
00
00
00
00
00
00
00
00
00
00
00
00
00
00
00
00
00
00
00
00
00
00
00
00
00
00
00
0F
00
00
00
00
00
00
00
00
00
00
00
00
00
00
00
00
00
00
00
00
00
00
00
00
00
00
00
00
00
00
00
00
00
00
00
00
00
00
00
00
00
00
00
00
00
00
00
00
00
00
00
00
00
00
00
00
00
00
00
00
00
00
00
00
00
00
00
00
00
00
00
00
00
00
00
00
00
00
00
00
10
00
00
00
00
00
00
00
00
00
00
00
00
00
00
00
00
00
00
00
00
00
00
00
00
00
00
00
00
00
00
00
00
00
00
00
10
00
00
00
00
00
00
00
00
00
00
00
10
11
00
00
00
00
00
00
00
00
00
00
00
11
01
11
00
00
00
00
00
00
00
00
00
00
00
00
00
00
00
00
00
00
00
00
00
00
00
00
00
00
00
00
00
00
00
00
00
00
00
00
00
00
00
00
00
00
00
00
00
00
00
00
00
00
00
00
00
00
00
FF
00
00
00
00
00
00
00
00
00
00
00
00
00
00
00
00
00
00
00
00
00
00
00
00
00
00
00
00
00
00
00
00
00
00
00
00
00
00
00
00
00
00
00
00
00
00
00
00
00
00
00
00
00
00
00
00
00
00
00
00
00
00
00
00
00
00
00
00
00
00
00
00
00
00
00
00
00
00
00
00
00
00
00
00
00
00
00
00
00
00
00
00
00
00
00
00
00
00
00
00
00
00
00
00
00
00
00
00
00
00
00
00
00
00
00
00
00
00
00
00
00
00
00
00
00
00
00
00
00
00
00
00
F0
00
00
00
00
00
00
00
00
00
00
00
00
00
F0
00
00
00
00
00
00
00
00
00
00
00
00
00
FF
00
00
00
00
00
00
00
00
00
00
00
00
00
F0
00
00
00
00
00
00
00
00
00
00
00
00
FF
FF
00
00
00
00
00
00
00
00
00
00
00
F0
FF
FF
00
00
00
00
00
00
00
00
00
00
00
00
00
F0
00
00
00
00
00
00
00
00
00
00
00
00
00
00
00
00
00
00
00
00
00
00
00
00
00
00
00
00
00
00
00
00
00
00
00
00
00
00
00
00
00
00
00
00
00
00
00
00
00
00
00
00
00
00
00
00
00
00
00
00
00
00
00
00
00
00
00
00
00
00
00
00
00
00
00
00
00
00
00
00
00
00
00
00
00
00
00
00
00
00
00
00
00
00
00
00
00
00
00
00
00
00
00
00
00
00
00
00
00
00
00
10
00
00
00
00
00
00
00
00
00
00
00
00
00
10
00
00
00
00
00
00
00
00
00
00
00
00
00
10
00
00
00
00
00
00
00
00
00
00
00
00
00
00
00
00
00
00
00
00
00
00
00
00
0F
FF
FF
FF
00
00
00
00
00
00
00
00
00
00
00
00
FF
FF
00
00
00
00
00
00
00
00
00
00
00
00
F0
F0
00
00
00
00
00
00
00
00
00
00
00
00
00
00
00
00
00
00
00
00
00
00
00
00
00
00
00
01
00
00
00
00
00
00
00
00
00
00
00
00
00
00
00
00
00
00
00
11
11
00
00
00
00
00
00
00
00
00
F0
FF
FF
00
00
00
00
00
00
00
10
00
00
00
F0
EF
EE
EE
FF
0F
00
00
00
00
00
00
01
00
00
F0
DE
DD
EE
FE
FF
00
00
01
00
10
01
10
11
11
00
EF
EE
FF
0F
00
10
00
00
00
00
10
11
21
22
12
01
00
01
00
00
00
00
00
00
00
11
11
22
22
22
11
01
00
00
00
00
00
F0
00
00
00
01
11
01
01
00
00
00
00
00
00
FF
00
00
00
00
00
00
00
00
00
00
00
00
00
F0
00
00
00
00
00
00
00
10
00
00
00
00
00
11
01
10
00
00
FF
DD
ED
0F
11
11
01
00
10
00
00
00
00
00
00
DF
FD
10
01
10
00
00
FF
F0
00
00
00
00
10
DF
FC
11
01
00
00
00
0F
00
00
00
00
00
11
CF
FC
11
01
00
00
F0
1F
00
00
00
00
00
11
C0
0B
11
00
00
00
FF
10
00
00
00
00
00
11
C0
0C
11
00
00
00
FF
10
01
00
00
00
00
11
D0
0D
11
00
00
F0
FF
10
00
00
00
00
00
11
D0
0E
11
10
F0
FF
0F
11
00
00
00
00
00
11
EF
0E
11
01
F0
FF
10
01
00
00
00
00
00
11
EF
0F
11
00
00
0F
01
00
00
00
00
00
00
11
EF
0F
01
00
00
00
00
00
00
00
00
00
00
11
FF
0F
00
00
00
00
00
F0
00
00
00
00
00
10
F0
00
00
00
00
00
00
00
00
00
00
00
00
00
00
00
00
00
00
00
00
00
00
00
00
00
00
00
00
00
00
00
00
00
00
00
00
00
00
00
00
00
00
00
00
00
00
00
00
00
00
00
00
00
00
00
00
00
00
00
00
00
00
00
00
00
00
00
00
00
00
00
00
00
00
00
00
00
00
00
00
00
00
00
00
00
00
00
00
00
00
00
00
00
00
00
00
00
00
00
00
00
00
00
00
00
00
01
00
00
00
00
00
00
00
00
00
00
00
00
00
00
00
00
00
00
00
00
00
00
00
00
00
00
00
00
00
00
00
00
00
00
00
00
00
00
00
00
00
00
00
00
00
00
00
00
00
00
00
00
00
00
00
00
00
00
00
00
00
00
00
00
00
00
00
00
00
00
00
00
00
00
00
00
00
00
00
00
00
00
00
00
00
00
00
00
00
00
00
00
00
00
00
00
01
00
00
00
00
00
00
00
00
00
00
00
00
00
01
00
00
00
00
00
00
00
00
00
00
00
00
00
00
00
00
00
00
00
00
00
00
00
00
00
00
00
00
00
00
00
00
00
00
00
00
00
00
00
00
00
00
00
00
00
00
00
00
00
00
00
00
00
00
00
00
00
00
00
00
00
00
00
00
00
00
00
00
00
00
00
00
00
00
00
00
00
00
00
00
00
00
00
00
00
00
00
00
00
00
00
00
00
00
00
00
00
00
00
00
00
00
00
00
00
00
00
00
00
00
00
00
00
00
00
00
00
00
00
00
00
00
00
00
00
00
00
00
00
00
00
00
00
00
00
00
00
00
00
00
00
00
00
00
00
00
00
00
00
00
00
00
00
00
00
00
00
00
00
00
00
00
00
00
00
00
00
00
00
00
00
00
00
00
00
00
00
00
00
00
00
00
00
00
00
00
00
00
00
00
00
00
00
00
00
00
00
00
00
00
00
00
00
00
00
00
00
00
00
00
00
00
00
00
00
00
00
00
00
00
00
00
00
00
00
00
00
00
00
00
00
01
00
00
00
00
00
00
00
00
00
00
00
F0
1F
01
00
00
00
00
00
00
00
00
00
00
00
FF
10
01
00
00
00
00
0F
00
00
00
00
00
F0
FF
10
10
00
00
00
00
F0
00
00
00
01
00
FF
FF
11
10
00
00
0F
00
0F
00
00
00
00
F0
FE
0F
11
10
00
00
00
00
0F
00
00
00
F0
DE
FE
00
00
10
00
00
00
00
FF
00
00
00
EF
ED
0F
01
00
00
00
00
00
00
FF
00
F0
FF
EE
FE
10
00
00
00
00
00
00
00
00
00
F0
FF
EE
0F
10
00
00
00
00
00
00
00
00
00
FF
FF
FE
0F
01
00
00
00
00
00
00
00
00
F0
FF
FE
FF
00
01
00
00
11
01
00
00
00
11
11
00
00
00
00
00
00
00
10
00
00
00
00
00
00
00
00
00
00
00
00
00
00
00
00
00
00
00
00
00
00
00
00
00
00
00
00
00
00
00
00
00
00
00
00
00
00
00
00
00
00
00
00
00
00
00
00
00
00
00
00
00
00
00
00
00
00
00
00
F0
00
10
00
00
00
00
00
00
00
00
00
00
00
00
00
10
00
00
10
00
00
00
00
00
00
00
00
00
00
11
11
11
11
11
00
00
00
00
00
00
00
F0
10
11
11
11
11
11
11
00
00
00
00
00
00
FF
0F
11
01
00
00
00
00
00
00
00
00
00
FF
FF
0E
00
F0
EF
FF
0F
10
01
00
00
00
FF
FF
FF
EE
EE
DD
EE
FE
0F
10
01
00
00
F0
FF
EE
FF
DD
DD
ED
FF
0F
00
10
01
00
00
FF
FF
FF
0F
ED
FE
0F
00
00
00
10
01
00
F0
FF
00
00
00
0F
00
11
00
00
00
00
00
00
00
00
00
00
00
00
11
00
00
00
00
00
00
00
00
00
00
00
00
00
00
00
00
00
00
00
00
00
00
00
00
00
00
00
00
00
00
00
00
00
00
00
00
00
00
00
00
00
00
00
00
00
00
00
00
00
00
00
00
00
00
00
00
00
00
00
00
00
00
00
00
00
00
00
00
01
00
00
00
00
00
00
00
00
00
00
00
00
00
01
00
00
00
00
00
00
00
00
00
00
00
00
00
00
00
00
00
00
00
00
00
00
00
00
00
00
00
00
00
00
00
00
00
00
00
00
00
00
00
00
00
00
00
00
00
00
00
00
00
00
00
00
00
00
00
00
00
00
00
00
00
00
00
00
00
00
00
00
00
00
00
00
00
00
00
00
00
00
00
00
00
00
00
00
00
00
00
00
00
00
00
00
00
00
00
00
11
01
00
00
FF
FF
EE
EE
EE
FE
FF
00
00
00
10
01
00
00
00
00
FF
F0
FF
EF
FE
0F
00
00
00
00
00
00
00
00
00
00
FF
FF
FE
FF
FF
00
00
00
00
00
00
00
00
00
00
00
FF
FF
FE
0F
00
00
00
00
00
00
10
01
00
00
00
F0
FF
FF
00
00
00
00
00
00
00
11
01
00
00
00
FF
FF
00
00
00
00
00
00
00
10
11
00
00
00
F0
FF
00
00
00
00
00
00
00
10
11
00
00
00
F0
FF
FF
00
00
00
00
00
00
00
11
01
00
00
00
FF
FF
00
00
00
00
00
00
0F
10
11
11
00
00
F0
FF
00
00
00
00
00
00
0F
0F
10
11
00
00
00
FF
00
00
00
00
00
00
00
00
00
00
00
00
00
F0
00
00
00
00
00
00
00
00
00
00
00
00
00
F0
00
00
00
00
00
00
00
00
00
00
00
00
00
00
00
00
00
00
00
00
00
00
00
00
00
00
00
00
00
00
00
00
00
00
00
00
00
00
00
00
00
00
00
00
00
00
00
00
00
00
00
00
00
00
00
00
00
00
00
00
00
00
00
00
00
00
00
00
00
00
00
00
00
00
00
00
00
00
00
00
00
00
00
00
00
00
00
00
00
00
00
00
00
00
00
00
00
00
00
00
00
00
00
00
00
00
00
00
00
00
00
00
00
00
00
00
00
00
00
00
00
00
00
00
00
00
00
00
00
00
00
00
00
00
00
00
00
00
00
00
00
00
00
00
00
00
00
00
00
00
00
00
00
00
00
00
00
00
00
00
00
00
00
00
00
00
00
00
00
00
00
00
00
00
00
00
00
00
00
00
00
00
00
00
00
00
00
00
00
00
00
00
00
00
00
00
00
00
00
00
00
00
00
00
00
00
00
00
00
00
01
00
00
00
00
00
00
00
00
00
00
00
00
10
01
00
00
00
00
00
00
00
00
00
00
00
00
00
F0
00
00
00
00
00
00
00
00
00
00
00
00
00
00
00
00
00
00
00
00
00
00
00
00
00
00
00
FF
00
00
00
00
00
00
00
00
00
00
00
00
00
00
00
00
00
00
00
00
00
00
00
00
00
00
00
00
00
00
00
00
00
00
00
00
00
00
00
00
00
0F
00
00
00
00
00
00
00
00
00
00
00
00
00
0F
0F
00
00
00
00
0F
00
00
00
00
00
00
00
ED
FF
00
01
00
00
F0
00
00
00
00
00
00
00
EE
EE
0F
21
11
01
00
00
00
00
00
00
00
00
FF
DE
ED
0F
11
11
11
01
00
00
00
00
00
00
0F
EF
CD
EC
10
12
11
11
01
01
00
00
00
00
00
00
DF
BB
EC
0F
11
11
01
00
00
00
00
00
11
11
01
EF
CC
DC
FE
00
00
00
00
00
00
00
11
11
11
12
E0
DD
ED
FE
0F
00
00
00
00
00
11
10
11
22
11
00
FF
FF
FF
00
00
00
00
00
01
00
10
10
11
11
01
00
00
00
00
00
00
00
00
00
00
00
00
10
11
00
00
00
00
00
00
00
0F
0F
00
00
00
00
00
00
00
00
00
00
00
00
00
00
00
00
00
00
00
00
00
00
00
00
00
00
00
00
00
00
00
00
00
00
00
00
00
00
00
00
00
00
00
00
00
00
00
00
00
00
00
00
00
00
00
00
00
00
00
00
00
00
00
00
00
00
00
00
00
00
00
00
00
00
00
00
00
00
00
00
00
00
00
00
00
00
00
00
00
00
00
00
00
00
00
00
01
00
00
00
00
00
00
00
00
00
00
00
00
00
10
00
0F
00
00
00
00
00
00
00
00
00
00
10
10
00
00
F0
0F
00
00
00
00
00
FF
00
00
00
00
00
00
00
00
00
00
00
00
00
00
00
00
00
00
00
00
00
00
00
00
00
00
00
00
00
00
00
00
00
00
00
00
00
00
00
00
00
00
00
F0
00
00
00
00
00
00
00
00
00
00
00
00
00
00
00
00
00
00
00
00
00
00
00
00
00
00
00
00
00
00
00
00
00
00
00
00
00
00
00
00
00
00
00
00
00
00
00
00
00
00
00
00
00
00
00
00
F0
00
00
00
00
00
00
00
00
00
00
00
00
F0
F0
00
00
00
00
00
00
00
00
00
00
00
00
00
F0
00
00
00
00
00
F0
00
00
00
F0
00
00
00
F0
00
0F
00
FF
0F
FF
0F
0F
0F
FF
00
00
00
FF
00
F0
00
FF
FF
FF
FF
FF
0F
FF
0F
00
F0
FF
00
FF
FF
0F
0F
F0
FF
FF
FF
FF
FF
FF
FF
FF
00
FF
00
00
00
00
00
00
00
F0
0F
FF
00
FF
00
00
00
00
00
00
00
00
00
00
00
0F
00
00
00
00
01
00
00
00
00
00
00
00
00
00
00
00
00
10
00
10
11
01
01
00
00
00
11
10
00
11
00
00
11
00
11
11
11
11
00
00
00
11
11
11
00
00
00
00
00
01
00
10
11
10
11
01
00
11
00
00
00
00
00
01
00
01
10
01
00
01
10
11
00
00
00
00
00
00
00
00
00
00
10
00
11
00
00
00
00
00
00
00
00
00
00
00
00
00
00
00
00
00
00
00
00
00
00
00
00
00
00
00
00
00
00
00
00
00
00
00
00
00
00
00
00
00
00
00
00
00
00
00
00
00
00
00
00
00
00
00
00
00
00
00
00
00
00
00
00
00
00
00
00
00
00
00
00
00
00
00
00
00
00
00
00
00
00
00
00
00
01
00
00
00
00
00
00
00
00
00
00
00
00
00
01
00
00
00
00
00
00
00
00
00
00
00
00
00
01
00
00
00
00
00
00
00
00
00
00
00
00
00
00
00
00
00
00
00
00
00
00
00
00
00
00
00
00
00
00
00
00
00
00
00
00
00
00
00
00
00
00
00
00
00
00
00
00
00
00
00
00
00
00
00
00
00
00
00
00
00
00
00
00
00
00
00
00
00
00
00
00
00
00
00
00
00
00
00
00
00
00
F0
00
00
00
00
00
00
00
00
00
00
00
00
00
F0
00
00
00
00
00
00
00
00
00
00
00
00
00
F0
00
00
00
00
10
00
00
00
00
00
00
00
00
FF
01
00
00
00
00
F0
0F
00
00
00
00
00
F0
EF
00
00
00
10
F0
FF
0F
00
00
00
00
F0
FF
FF
00
00
00
00
EF
FE
0F
00
00
00
F0
FF
FF
FF
00
00
00
F0
EE
0F
00
11
00
00
F0
FF
0F
00
00
00
00
DE
0E
00
00
00
00
00
00
00
00
00
00
00
EF
ED
00
00
00
10
00
00
00
00
00
10
FF
FF
DE
0E
00
00
00
00
00
00
00
00
00
10
FF
EF
EE
00
00
00
00
00
00
00
00
01
00
10
FF
EF
0F
00
00
00
00
00
00
00
00
00
00
10
FF
FF
00
00
00
00
00
00
00
00
00
00
00
10
FF
00
00
00
00
00
00
00
00
00
00
00
00
00
FF
00
00
00
00
00
00
00
00
00
00
00
00
00
F0
00
00
00
00
00
00
00
00
00
00
00
00
00
00
00
00
00
00
00
00
00
00
00
00
00
00
00
00
00
00
00
00
00
00
00
00
00
00
00
00
00
00
00
00
00
00
00
00
00
00
00
00
00
00
00
01
00
00
00
00
00
00
00
00
00
00
00
00
00
10
00
00
00
00
00
00
00
00
00
00
00
00
00
00
00
00
00
00
00
00
00
00
00
00
00
00
00
00
0F
00
00
00
00
00
00
00
00
00
00
00
00
00
00
00
00
00
00
00
00
00
00
00
00
00
00
00
10
00
00
00
00
00
00
00
00
00
00
00
00
00
00
00
00
00
00
00
00
00
00
00
00
00
00
00
00
00
00
00
00
00
00
00
00
00
00
00
00
00
00
00
00
00
00
00
00
00
00
00
00
00
00
00
00
00
00
00
00
00
00
00
00
00
00
00
00
00
00
00
00
00
00
00
00
00
00
00
00
00
00
00
00
00
00
00
00
00
00
00
00
00
00
00
00
00
00
00
00
00
00
00
00
00
00
00
00
00
00
01
00
00
00
00
00
00
00
00
00
00
00
00
00
00
00
00
00
00
00
00
00
00
00
00
00
00
00
00
00
00
00
F0
0F
0F
F0
00
00
00
00
00
00
00
00
00
00
FF
00
00
00
00
00
00
00
00
00
00
00
00
00
00
00
00
00
00
00
00
00
00
00
00
10
01
00
10
11
00
00
00
00
00
10
00
00
0F
10
11
11
10
11
11
01
00
00
00
00
00
00
FF
FF
00
10
01
11
00
00
00
00
00
00
00
00
EF
ED
FE
0F
00
00
00
00
00
00
00
00
00
00
EF
DE
DD
ED
FE
0F
0F
0F
00
00
00
00
00
00
F0
FF
DE
CD
CC
DD
FE
FF
0F
00
01
00
00
00
01
F0
FF
EF
EE
EE
FF
0F
00
00
00
00
00
01
11
01
11
11
11
11
00
10
00
00
00
00
00
00
11
11
11
21
21
12
11
01
01
00
00
00
00
00
11
11
11
11
11
11
00
00
00
00
00
00
00
00
11
11
11
11
11
11
11
01
00
00
00
00
00
00
00
00
00
10
11
11
11
11
11
00
00
00
00
00
00
00
00
00
00
00
10
11
11
01
00
00
00
00
00
00
00
00
00
00
00
10
11
01
00
00
00
00
00
00
00
00
00
0F
00
00
11
11
00
00
00
00
00
F0
00
00
FF
0F
00
00
11
11
01
00
00
00
00
00
00
00
0F
00
00
00
10
12
11
00
00
00
F0
00
FF
F0
F0
00
00
F0
0F
11
11
01
00
00
F0
F0
00
00
00
F0
00
FF
0F
10
11
01
00
00
00
00
00
F0
00
00
F0
00
FF
0F
11
01
10
11
00
00
00
00
00
00
00
00
F0
0F
00
11
10
10
00
00
00
00
00
00
00
00
00
00
00
00
00
10
00
00
00
00
00
00
00
00
00
00
00
00
00
00
00
00
00
00
00
00
00
00
00
00
00
00
00
00
00
00
00
00
00
00
00
00
00
00
00
00
00
00
00
00
00
00
00
00
00
00
00
00
00
00
00
00
00
00
00
00
00
00
00
00
00
00
00
00
00
00
00
00
00
00
00
00
00
00
00
00
00
00
00
00
00
00
00
00
00
00
00
00
00
00
00
00
00
00
00
00
00
00
00
00
00
00
00
00
00
00
00
00
00
00
00
00
00
00
00
00
00
00
00
00
00
00
00
00
00
00
00
00
00
00
00
00
00
00
00
00
00
00
00
00
00
00
00
00
00
00
00
00
00
00
00
00
00
00
00
00
00
00
00
00
00
00
00
00
00
00
00
00
00
00
00
00
00
00
00
00
00
00
00
00
00
00
00
00
00
00
00
00
00
00
00
00
00
00
00
00
00
00
00
00
00
00
00
00
00
00
00
00
00
00
00
00
00
00
00
00
00
00
00
F0
00
00
00
00
00
00
00
00
00
00
00
00
00
00
11
00
00
10
11
11
00
00
00
00
FF
FF
00
00
00
00
00
00
10
01
00
00
00
00
F0
FF
00
00
00
00
00
00
00
11
01
00
00
00
F0
FF
0F
00
00
00
00
00
00
11
01
00
00
00
F0
FF
0F
00
01
00
00
00
00
10
11
00
00
00
F0
FF
0F
00
01
00
00
00
00
00
11
01
00
00
F0
FF
0F
00
00
00
00
00
00
00
11
11
01
00
FF
FF
0F
00
00
00
00
00
FF
0F
10
11
01
00
FF
FF
00
00
0F
F0
FF
FF
FF
FF
00
11
11
00
FF
0F
F0
00
FF
FF
FF
FF
0F
F0
0F
10
01
00
FF
0F
F0
00
FE
FF
FF
00
00
00
00
10
00
00
FF
0F
F0
00
FF
0F
00
00
00
00
00
00
00
00
00
00
00
00
00
00
00
00
00
00
00
00
00
00
00
00
00
00
00
00
00
00
00
00
00
00
00
00
00
00
00
00
00
00
00
00
00
00
00
00
00
00
00
00
00
00
00
00
00
00
00
00
00
00
00
00
00
00
00
00
00
00
00
00
00
00
00
00
00
00
00
00
00
00
01
00
00
00
00
00
00
00
00
00
00
00
00
00
00
00
00
00
00
00
00
00
00
00
00
00
00
00
00
00
00
00
00
00
00
00
00
00
00
00
00
00
00
00
00
00
00
00
00
00
00
00
00
00
00
00
00
00
00
00
00
00
00
00
00
00
00
00
00
00
00
00
00
00
00
00
00
00
00
00
00
00
00
00
00
00
00
00
00
00
00
00
00
00
00
00
00
00
00
00
00
00
00
00
00
00
00
00
00
00
00
00
00
00
00
00
00
00
00
00
00
00
00
00
00
00
00
00
00
00
00
00
00
00
00
00
00
00
00
00
01
00
00
00
00
00
00
00
00
00
00
00
00
00
01
00
00
00
00
00
00
00
00
00
00
00
01
00
00
00
00
00
00
00
00
00
00
00
00
00
00
00
00
00
00
00
00
00
00
00
00
00
00
00
00
00
01
00
00
00
00
00
00
00
00
00
00
00
00
00
00
00
00
00
00
00
00
00
00
00
00
00
00
00
00
00
00
00
00
00
00
00
00
00
00
00
00
00
00
00
00
00
00
00
00
00
00
00
00
00
00
00
00
00
00
00
00
00
00
00
00
00
00
00
00
00
00
00
00
00
00
00
00
00
00
00
00
00
00
00
00
00
00
00
00
00
00
00
00
00
00
00
00
00
00
00
00
00
00
00
00
00
00
00
00
00
00
00
00
00
00
00
00
00
00
00
00
00
00
00
00
00
00
00
00
00
00
00
00
00
00
00
00
00
00
00
11
11
00
01
00
01
11
11
00
00
00
00
00
00
01
11
11
11
11
11
11
00
00
00
00
00
00
00
11
11
11
11
11
01
00
00
00
00
00
00
00
00
11
11
11
01
01
F0
FF
FF
00
00
00
00
00
00
00
00
00
00
FF
EE
FE
00
00
00
00
00
00
00
FE
FF
EE
DE
ED
FE
0F
00
00
00
00
00
00
00
ED
DE
CC
CB
FD
0F
00
00
00
00
00
00
00
00
DD
DD
DC
FE
00
00
00
00
00
00
00
00
00
00
ED
EE
0F
11
11
01
00
00
00
00
00
00
00
00
FE
0F
11
11
01
00
00
00
00
00
00
00
00
00
0F
11
11
10
00
00
00
00
00
00
00
00
00
00
00
11
01
00
00
00
00
00
00
00
00
00
00
00
10
10
00
00
00
00
00
00
00
00
00
00
00
00
00
00
00
00
00
00
00
00
00
00
00
00
00
00
10
00
00
00
00
00
00
00
00
00
00
00
00
00
01
00
00
00
00
00
00
00
00
00
00
00
00
00
00
00
00
00
00
00
00
00
00
00
00
00
00
00
00
00
00
00
00
00
00
00
00
00
00
00
00
00
00
00
00
00
00
00
00
00
00
00
00
00
00
00
00
00
00
00
00
00
00
00
00
00
00
00
00
00
00
00
00
00
00
00
00
00
00
00
00
00
00
00
00
00
00
00
00
00
00
00
00
00
00
00
00
00
00
00
00
00
00
00
00
00
00
00
00
00
00
00
00
00
00
00
00
00
00
00
00
00
00
00
00
00
00
00
00
00
00
00
00
00
00
00
00
00
00
00
00
00
00
00
00
00
00
00
00
00
00
00
00
00
00
00
00
00
00
00
00
00
00
00
00
00
00
00
00
00
00
00
00
00
00
00
00
00
00
00
00
00
00
00
00
00
00
00
00
00
00
00
00
00
00
00
00
00
00
00
00
00
00
00
00
00
00
00
00
00
00
00
00
00
00
00
00
00
00
00
00
00
00
00
00
00
00
00
00
00
00
00
00
00
00
00
00
00
00
00
00
00
00
00
00
00
00
00
00
00
00
00
00
F0
00
00
11
00
0F
10
00
00
00
11
00
00
00
00
00
10
01
0F
0F
11
00
00
00
11
01
00
FF
0F
00
10
01
FF
0F
11
F0
0F
FF
11
01
F0
0F
00
00
11
F0
FF
0F
11
F0
0F
FF
10
01
00
00
00
10
01
F0
EF
1F
11
F0
0F
FF
10
11
00
00
10
11
01
EF
EE
20
11
F1
FF
EE
1F
11
00
00
00
01
F0
CE
FD
11
11
F0
FF
EE
1F
01
00
00
10
01
EF
CC
0F
11
11
01
FF
EE
0E
11
01
00
10
F0
DE
DC
10
11
11
01
FF
DE
FE
10
11
00
F0
DE
CC
FC
11
11
11
01
F0
DE
ED
0F
10
00
00
00
00
0F
00
00
00
00
00
00
00
00
00
F0
00
00
00
00
00
00
00
00
00
00
00
00
00
F0
00
00
00
00
00
00
00
00
00
00
00
00
00
00
00
00
00
00
00
00
00
00
00
00
00
00
00
00
00
00
00
00
00
00
00
00
00
00
00
00
00
00
00
00
00
00
00
00
00
00
00
00
00
00
00
00
00
00
00
00
00
00
00
00
00
00
00
00
00
00
00
00
00
00
00
00
00
00
00
00
00
00
00
00
00
00
00
00
00
00
00
00
00
00
00
00
00
0F
00
00
00
00
00
00
00
00
00
00
00
00
00
0F
00
00
00
00
00
00
00
00
00
00
00
00
00
00
FF
00
00
00
00
00
00
00
00
00
00
00
00
F0
FF
0F
00
00
00
00
00
00
00
00
00
00
00
F0
FF
0F
00
00
00
00
00
00
00
00
00
00
00
FF
F0
00
00
00
00
00
00
00
00
00
00
00
00
00
00
00
0F
00
00
00
00
00
00
00
00
00
00
F0
00
0F
FF
0F
00
00
00
00
00
00
00
00
00
00
00
F0
FF
0F
00
00
00
00
00
00
00
00
00
00
00
F0
FF
00
00
00
00
00
F0
FF
00
00
00
00
00
00
0F
10
00
00
00
00
FF
FF
FF
00
10
00
00
00
00
11
01
00
00
00
FF
FF
00
00
00
00
00
00
00
11
11
11
00
00
00
00
00
00
10
00
00
00
00
00
11
11
11
11
11
00
01
00
10
00
00
00
00
00
00
11
11
11
11
11
11
01
11
00
00
00
00
00
00
00
10
11
11
11
01
01
10
00
00
00
00
00
00
00
00
00
11
11
00
01
10
00
00
00
00
00
00
00
00
00
00
00
00
00
00
00
00
00
00
00
00
00
00
00
00
00
00
00
00
01
00
00
00
00
00
00
00
00
00
00
00
00
00
00
00
00
00
00
00
00
00
00
00
00
00
00
00
00
00
00
00
00
00
00
00
00
00
00
00
00
00
00
00
00
00
00
00
00
00
00
00
00
00
00
00
00
00
00
00
00
00
00
00
00
00
00
00
00
00
00
00
00
00
00
00
00
00
00
00
00
00
00
00
00
00
00
00
00
00
00
00
00
00
00
00
00
00
00
00
00
00
00
00
00
00
00
00
00
00
00
00
00
00
00
00
00
00
00
00
00
00
00
00
00
00
00
00
00
00
00
00
00
00
00
00
00
00
00
00
00
00
00
00
00
00
00
00
00
00
00
00
00
00
00
00
00
00
00
00
00
00
00
00
00
00
00
00
00
00
00
00
00
00
00
00
00
00
00
00
00
00
00
00
00
00
00
00
00
00
00
00
00
00
00
00
00
00
00
00
00
00
00
00
00
00
00
00
00
00
00
00
00
00
00
00
00
00
00
00
00
00
00
00
00
00
00
00
00
00
00
00
00
00
00
00
00
00
00
00
00
00
00
00
00
00
00
00
00
01
00
00
00
00
00
00
00
00
00
00
00
00
10
00
00
00
00
00
00
00
00
00
00
00
00
00
01
00
F0
00
00
00
00
00
00
00
00
00
00
00
F0
FF
FF
00
00
00
00
00
00
00
00
00
00
FF
FF
FF
F0
00
00
00
00
00
00
0F
0F
FF
FF
EE
FE
FF
FF
00
00
00
00
00
00
FF
FF
FF
FE
FF
FF
F0
00
00
F0
0F
00
F0
FF
FF
FF
FF
FF
FF
0F
00
00
00
00
00
0F
00
FF
FF
FF
0F
00
00
00
00
00
00
00
0F
00
F0
00
F0
0F
00
00
00
00
00
00
00
00
00
00
00
00
00
00
00
00
00
00
00
00
00
00
00
00
00
00
00
00
00
00
00
00
00
00
00
00
00
00
00
00
00
00
00
00
00
00
00
00
00
00
00
00
00
00
00
00
00
00
00
00
00
00
00
00
00
00
00
00
00
00
00
00
00
00
00
00
00
00
00
00
00
00
00
00
00
00
00
00
00
00
00
00
00
00
00
00
00
00
00
00
00
00
00
00
00
00
00
00
00
00
00
00
00
00
00
00
00
00
00
00
00
00
00
00
00
00
00
00
00
00
00
00
00
00
00
00
00
00
00
00
00
00
01
00
00
00
00
00
00
00
00
00
00
00
00
00
00
00
00
00
00
00
00
00
00
00
00
00
00
00
11
00
00
00
00
00
00
00
00
00
00
00
00
00
10
01
00
00
00
00
00
00
00
00
00
00
00
0F
10
11
01
10
00
00
00
00
00
00
00
00
00
F0
0F
11
00
00
00
00
00
00
00
00
00
00
00
FF
FF
01
10
00
00
00
00
00
00
00
00
00
00
FF
FE
00
00
00
00
00
00
00
00
00
00
00
00
FF
0E
10
00
00
00
00
00
00
00
00
00
00
00
EF
0F
01
00
00
00
00
00
00
00
00
00
00
00
FF
00
01
00
00
00
00
00
00
00
00
00
00
00
0F
00
01
00
00
00
00
00
00
00
00
00
00
F0
00
10
00
00
00
00
00
00
00
00
00
00
00
00
00
00
00
00
00
00
00
00
00
00
00
00
00
00
00
00
00
00
00
00
00
00
00
00
00
00
00
00
00
00
00
00
00
00
00
00
00
00
00
00
00
00
00
00
00
00
00
00
00
00
00
00
00
00
00
00
00
00
00
00
00
00
00
00
00
00
00
00
00
00
00
00
00
00
00
00
00
00
00
00
00
00
00
00
00
00
00
00
00
00
00
00
00
00
00
00
00
00
00
00
00
00
00
00
00
00
00
00
00
00
00
00
00
00
00
00
00
00
00
00
00
00
00
00
00
00
00
00
00
00
00
00
00
00
00
00
00
00
00
00
00
00
00
00
00
00
00
00
00
00
00
00
00
00
00
00
00
00
00
00
00
00
00
00
00
00
00
00
00
00
00
00
00
00
00
00
00
00
00
00
00
00
00
00
00
00
00
00
00
00
00
00
00
00
00
00
00
00
00
00
00
00
00
00
00
00
00
00
00
00
00
00
00
00
00
00
00
00
00
00
00
00
00
F0
00
00
00
00
00
00
00
00
00
00
00
00
00
FF
00
00
00
00
00
00
00
00
00
00
00
00
00
FF
00
00
00
00
00
00
00
00
00
00
00
00
F0
FF
00
00
00
00
00
F0
00
00
00
00
00
00
F0
FF
00
00
00
00
00
F0
00
00
00
00
00
00
FF
FF
00
00
00
00
00
FF
00
00
00
00
00
00
FF
00
10
00
00
00
F0
FF
00
00
00
00
00
00
00
00
00
00
00
F0
FF
FF
00
00
00
00
00
00
00
00
00
00
00
FF
FF
0F
00
00
00
00
00
00
00
00
00
00
FF
FF
0F
00
00
00
00
00
00
00
00
00
00
F0
FF
FF
00
00
00
00
00
00
00
00
00
00
00
FF
FF
FF
00
00
00
00
00
00
00
00
00
00
00
FF
FF
0F
00
00
00
00
00
00
00
00
00
00
00
FF
FF
00
00
00
00
00
00
00
00
00
00
00
F0
FF
0F
00
00
10
00
00
00
00
00
00
00
00
F0
FF
0F
00
00
10
00
00
00
00
00
00
00
00
F0
FF
0F
00
00
10
00
00
00
00
00
00
00
00
FF
FF
00
00
00
10
00
00
00
00
00
00
00
00
FF
0F
00
00
00
01
11
00
00
00
00
F0
FF
FF
0F
00
00
00
00
10
00
00
00
00
00
00
F0
FF
FF
00
00
00
00
00
00
00
00
00
00
00
00
FF
FF
00
00
00
00
00
00
00
00
00
00
00
00
F0
FE
0F
00
00
00
00
00
00
00
00
00
00
00
00
FF
FF
00
00
00
00
00
00
00
00
00
00
00
00
FF
FF
00
00
00
00
00
00
00
00
00
00
00
00
FF
FE
0F
00
00
00
00
00
00
00
00
00
00
00
F0
FF
0F
00
00
00
00
00
00
00
00
00
00
00
00
EF
FF
00
00
00
00
00
00
00
00
00
00
01
00
F0
FF
00
00
00
00
00
00
00
00
00
00
01
00
00
FF
FF
00
00
00
00
00
00
00
00
00
11
01
00
FF
FF
00
00
00
00
00
00
00
00
00
00
00
00
F0
FF
0F
00
00
00
00
00
00
00
00
00
00
00
00
F0
0F
00
00
00
00
00
00
00
00
00
00
00
00
00
00
00
00
00
00
00
00
00
00
00
00
00
00
00
00
00
00
00
00
00
00
00
00
00
00
00
00
00
00
00
00
00
00
00
00
00
00
00
00
00
00
00
00
00
00
00
00
00
00
00
00
00
00
00
00
00
00
00
00
00
00
00
00
00
00
00
00
00
00
00
00
00
00
00
00
00
00
00
00
00
00
00
00
00
00
00
00
00
00
00
00
00
00
00
00
00
00
00
00
00
00
00
00
00
00
00
00
00
00
00
00
00
00
00
00
00
00
00
00
00
00
00
00
00
00
00
00
00
00
00
00
00
00
00
00
00
00
00
00
00
00
00
00
00
00
00
00
00
00
00
00
00
00
00
00
00
00
00
00
00
00
00
00
00
00
00
00
00
00
00
01
00
00
00
00
00
00
00
00
00
00
00
00
00
11
00
00
00
F0
00
00
00
00
00
00
00
00
00
01
00
00
FF
FF
FF
00
00
00
00
00
00
00
00
00
00
0F
F0
F0
FF
00
00
00
00
00
00
00
00
00
00
00
FF
FF
FF
00
00
00
00
00
00
00
00
00
00
00
F0
FF
FF
0F
00
00
00
00
00
00
00
00
00
00
F0
0F
FF
0F
00
00
00
00
00
00
00
00
00
00
00
00
FF
0F
00
00
00
00
00
00
00
00
00
00
00
00
FF
F0
00
00
00
00
00
00
00
00
00
00
00
00
F0
FF
0F
01
00
00
00
00
00
00
00
00
00
FF
FF
FF
0F
01
00
00
00
00
00
00
00
00
FF
FF
FF
FF
0F
01
00
00
00
00
F0
00
00
F0
FF
FF
FF
00
00
01
00
00
00
00
00
00
F0
FF
0F
0F
00
00
00
11
00
00
F0
00
00
00
00
F0
FF
00
00
00
00
00
00
00
00
00
00
00
00
00
00
00
00
00
00
00
00
00
00
00
00
00
00
00
00
00
00
00
00
00
00
00
00
00
00
00
00
00
00
00
00
00
00
00
00
00
00
00
00
00
00
00
00
00
00
00
00
00
00
00
00
00
00
00
00
00
00
00
00
00
00
00
00
00
00
00
00
00
00
00
00
00
00
00
00
00
00
00
00
00
00
00
00
00
00
00
00
00
00
00
00
00
00
00
00
00
00
00
00
00
00
00
00
00
00
00
00
00
00
00
00
00
00
00
00
00
00
00
00
00
00
00
00
00
00
00
00
00
00
00
00
00
00
00
00
00
00
00
00
00
00
00
00
00
00
00
00
00
00
00
00
00
00
00
00
00
00
00
00
00
00
00
00
00
00
00
00
00
00
00
00
00
00
00
00
00
00
00
00
00
00
00
00
00
00
00
00
00
00
00
00
00
00
FE
0F
00
00
00
00
00
00
00
00
00
00
00
00
FF
00
00
00
00
00
00
00
00
00
00
00
00
00
FF
00
00
00
00
00
00
00
00
00
00
00
00
00
0F
00
00
00
00
00
00
00
00
00
00
00
00
00
00
00
00
00
00
00
00
00
00
00
00
00
00
00
00
00
00
00
00
00
00
00
00
00
00
00
00
00
00
00
00
00
00
00
00
00
00
00
00
00
00
00
0F
00
00
00
00
00
00
00
00
00
00
00
00
00
00
00
00
00
00
00
00
00
00
00
00
00
00
00
00
00
00
00
00
00
00
00
00
00
00
00
00
00
00
00
00
00
00
00
00
00
00
00
00
00
00
00
00
00
00
00
00
00
00
00
00
00
00
00
00
00
00
00
00
00
00
00
00
00
00
00
00
00
00
00
00
00
00
00
00
00
00
00
00
00
00
00
00
00
00
00
00
00
00
00
00
00
00
00
00
00
00
00
00
00
00
00
00
00
00
00
00
00
00
00
00
00
00
00
00
00
00
00
00
00
00
00
00
00
00
00
00
00
00
00
00
00
00
00
00
00
00
00
00
00
0F
00
00
00
00
00
00
00
00
00
00
00
00
00
00
00
00
00
00
00
00
00
00
00
00
00
00
10
01
00
00
00
00
00
00
00
00
00
00
00
00
10
11
01
00
00
00
00
00
FF
F0
00
00
00
00
10
11
01
00
00
00
00
F0
FF
FF
00
00
00
10
10
11
10
11
01
00
00
00
00
00
10
11
01
01
10
11
10
11
11
11
11
11
11
11
11
01
11
01
10
01
00
10
11
11
11
11
11
11
11
10
01
00
00
00
00
00
00
00
11
11
00
11
11
00
00
00
00
00
00
00
00
00
00
00
00
00
00
00
00
00
00
00
00
00
00
00
00
01
01
00
00
00
00
00
FF
00
00
00
00
00
00
00
00
00
00
00
00
00
FF
00
00
00
00
00
00
10
11
01
00
00
00
00
FF
00
00
00
00
00
00
00
11
01
00
00
00
00
FF
00
00
00
00
00
00
00
11
11
00
00
00
00
FF
F0
00
00
00
00
00
00
11
11
00
00
00
00
FF
00
00
00
00
00
00
00
10
11
01
00
00
00
F0
00
00
00
00
00
F0
0F
00
11
11
11
00
00
F0
00
00
00
00
00
F0
FF
00
10
11
11
00
00
F0
00
00
00
00
00
00
FF
FF
00
00
10
11
00
F0
00
00
00
00
00
00
00
F0
0F
00
00
00
00
F0
00
00
00
00
00
00
00
00
00
00
00
00
00
F0
00
00
00
00
00
00
00
00
00
00
00
00
00
F0
00
00
00
00
00
00
00
00
00
00
00
00
00
F0
00
00
00
00
00
00
00
00
00
00
00
00
00
00
00
00
00
00
00
00
00
00
00
00
00
00
00
00
00
00
00
00
00
00
00
00
00
00
00
00
00
00
00
00
00
00
00
00
00
00
00
00
00
00
00
00
00
00
00
00
00
00
00
00
00
00
00
00
00
00
00
00
00
00
00
00
00
00
00
00
00
00
00
00
00
00
00
00
00
00
00
00
00
00
00
00
00
00
00
00
00
00
00
00
00
00
00
00
00
00
00
00
00
00
00
00
00
00
00
00
00
00
00
00
00
00
00
00
00
00
00
00
00
00
00
00
00
00
00
00
00
00
00
00
00
00
00
00
00
00
00
00
00
00
00
00
00
00
00
00
00
00
00
00
00
00
00
00
00
00
00
00
00
00
00
00
00
00
00
00
00
00
00
00
00
00
00
00
00
00
00
00
00
00
00
00
00
01
01
11
11
21
22
12
11
11
12
11
00
10
00
00
01
11
11
11
11
22
11
01
01
01
01
11
00
00
00
10
11
01
00
00
00
00
00
00
00
F0
0F
F0
00
F0
FF
EF
EE
FF
FF
FF
FF
00
0F
00
F0
FF
FF
FF
FF
FE
EE
EE
EE
FF
FF
F0
00
F0
FF
FF
0F
FF
FF
FF
FF
FF
FF
00
00
00
00
F0
FF
00
00
00
00
11
01
11
00
11
00
00
00
00
00
11
00
10
11
11
22
22
22
11
01
00
00
00
01
00
00
01
00
11
21
22
22
12
11
00
00
F0
00
00
10
10
00
FF
EF
EE
FF
00
00
00
00
00
00
00
00
00
00
FF
EE
DD
DD
FE
0F
00
00
00
00
00
00
F0
F0
0F
00
FF
FF
FF
00
00
01
10
00
00
F0
FF
00
00
11
11
11
00
00
F0
00
10
0F
F0
00
00
00
00
00
11
11
00
00
FF
FF
00
00
00
00
00
00
00
00
00
00
00
00
00
0F
00
00
00
00
00
00
00
00
00
00
00
00
00
F0
00
00
00
00
00
00
00
00
00
00
00
00
00
00
F0
00
00
00
00
00
00
00
00
00
00
00
00
00
F0
00
00
00
00
00
00
00
00
00
00
00
00
00
01
00
00
00
00
00
00
00
00
00
00
00
00
00
00
00
00
00
00
00
00
00
00
00
00
00
00
00
00
00
00
00
00
00
00
00
00
00
00
00
00
00
00
0F
00
00
00
00
00
00
00
00
00
00
00
00
00
00
00
00
00
00
00
00
00
00
00
00
00
00
00
00
00
00
00
00
00
00
00
00
00
00
00
00
00
00
00
00
00
00
00
00
00
00
00
00
00
00
0F
00
00
00
00
00
00
00
00
01
00
00
00
00
0F
00
00
00
00
00
00
00
00
00
00
00
00
00
00
11
00
00
00
F0
00
0F
00
00
00
00
00
00
00
10
00
00
00
00
00
00
00
00
00
00
00
00
00
00
00
00
00
00
00
00
00
00
00
00
00
00
00
00
00
00
00
00
00
00
00
00
00
00
00
00
00
00
00
00
00
00
00
00
00
00
00
00
00
00
00
00
00
00
00
00
00
00
00
00
00
00
00
00
00
00
00
00
00
00
00
00
00
00
00
00
00
00
00
00
00
00
00
00
00
00
00
00
00
00
00
00
00
00
00
00
00
00
00
00
00
00
00
00
00
00
00
00
00
00
00
00
00
00
00
00
00
00
00
00
00
00
00
00
00
00
00
00
00
00
00
00
00
00
00
00
00
00
00
00
00
00
00
00
00
00
00
00
00
00
00
00
00
00
00
00
00
00
00
00
00
00
00
00
00
00
00
00
00
00
00
00
00
00
00
00
00
00
00
00
00
00
00
00
00
00
00
00
00
00
00
00
00
00
00
00
00
00
00
00
00
00
00
00
00
00
00
00
00
00
00
00
00
00
00
00
00
00
00
00
00
00
00
00
00
00
00
00
00
00
00
00
00
00
00
00
F0
00
01
00
00
01
00
00
00
00
00
00
00
FF
FF
10
01
F0
0F
01
00
00
00
11
00
00
FF
FF
0F
11
00
F0
1F
01
F0
00
0F
10
11
0F
FF
0F
10
11
00
EF
10
11
F0
FF
F0
10
11
FF
FF
0F
11
01
F0
EE
10
11
F0
FF
FF
00
11
FF
00
00
11
00
EF
FD
11
11
F0
FF
FF
00
11
0F
00
10
11
F0
DD
0E
11
11
F0
FF
FF
00
10
FF
00
11
01
DE
DB
1F
01
11
00
FF
EF
0F
11
F0
10
00
EF
DD
FD
10
01
10
00
FF
EF
FE
10
00
F0
EF
CD
CC
0E
21
11
11
01
F0
EE
FF
10
01
00
00
00
00
00
00
00
00
00
00
00
00
10
00
10
00
00
00
00
00
00
00
00
00
00
00
00
00
00
00
00
00
00
00
00
00
00
00
00
00
00
00
00
00
00
00
00
00
00
00
00
00
00
00
00
00
0F
00
00
00
00
00
00
00
00
00
00
00
00
00
00
00
00
00
00
00
00
00
00
00
00
00
00
00
00
00
00
00
00
00
00
00
00
00
00
00
00
01
00
00
00
00
00
00
00
00
00
00
00
00
00
01
00
00
00
00
00
00
00
00
00
00
00
00
00
11
00
00
00
00
00
00
00
00
00
00
00
00
00
12
11
11
11
11
11
11
01
00
00
00
00
00
00
11
11
11
21
12
12
11
11
01
00
00
00
00
00
10
21
22
12
11
01
00
10
00
00
00
00
00
00
0F
11
11
00
FF
FF
FF
FF
00
00
00
00
00
00
FD
EF
DE
DD
ED
EE
FF
FF
0F
00
00
00
00
00
CB
BC
AB
DC
FE
FF
0F
00
00
00
00
00
00
00
CB
BB
EC
0F
00
00
00
10
00
00
00
00
00
00
DC
0E
11
11
11
00
00
00
00
00
00
00
00
00
FD
21
12
01
01
00
00
00
00
00
00
00
00
00
1F
11
11
00
00
00
00
00
00
00
00
00
00
00
00
01
00
00
00
00
00
00
00
00
00
00
00
00
10
00
00
00
00
00
00
00
00
00
00
00
00
00
00
00
00
00
00
00
00
00
00
00
00
00
00
00
00
00
00
00
00
00
00
00
00
00
00
00
00
00
00
00
00
00
00
00
00
00
00
00
00
00
00
00
01
00
00
00
00
00
00
00
00
00
00
00
00
00
00
00
00
00
00
00
00
00
00
00
00
00
00
00
00
00
00
00
00
00
00
00
00
00
00
00
00
00
00
10
00
00
00
00
00
00
00
00
00
00
00
00
00
00
00
00
00
00
00
00
00
00
00
00
00
00
00
00
00
00
00
00
00
00
00
00
00
00
00
00
00
00
00
00
00
00
00
00
00
00
00
00
00
00
00
00
00
00
00
00
00
00
00
00
00
00
00
00
00
00
00
00
00
00
00
00
00
00
00
00
00
00
00
00
00
00
00
00
00
00
00
00
00
00
00
00
00
00
00
00
00
00
00
00
00
00
00
00
00
00
00
00
00
00
00
00
00
00
00
00
00
00
00
00
00
00
00
00
00
00
00
00
00
00
00
00
00
00
00
00
00
00
00
00
00
00
00
00
00
00
00
00
00
FF
FF
F0
00
00
00
00
00
00
00
00
00
00
00
FF
FF
FF
00
00
00
00
00
00
00
00
00
00
00
FF
FE
FF
00
00
00
00
00
00
00
00
00
00
F0
EF
FE
0F
00
00
00
00
00
00
00
00
00
00
F0
FF
FF
00
10
01
00
00
00
00
00
00
00
00
FF
FF
0F
00
11
01
0F
00
00
00
00
00
00
00
FF
FF
00
10
11
01
0F
00
00
00
00
00
00
00
0F
00
00
11
11
01
FF
00
00
00
00
00
00
00
0F
00
00
10
11
F1
FF
00
00
00
00
00
00
00
00
00
00
10
11
01
FF
FF
00
00
00
00
00
00
00
00
00
10
11
01
FF
00
00
00
00
00
00
00
00
00
00
10
11
00
00
0F
00
00
00
00
00
00
00
00
00
00
11
00
00
0F
00
00
00
00
00
00
00
00
00
00
00
00
00
00
00
00
00
00
00
00
00
00
00
00
00
00
00
00
00
00
00
00
00
00
00
00
00
00
00
00
00
00
00
00
00
00
00
00
00
00
00
00
00
00
00
00
00
00
00
00
00
00
10
11
00
00
F0
F0
00
00
00
00
00
00
00
00
11
01
10
11
00
00
00
00
00
00
00
00
00
00
11
11
21
12
11
11
11
11
11
01
01
00
00
00
11
11
21
22
22
22
12
11
11
01
00
00
00
00
01
00
00
00
00
00
00
00
00
00
00
00
00
00
00
EF
EE
ED
DE
EE
FE
FF
FF
0F
00
00
00
00
FF
EF
DD
DC
EE
FE
FF
F0
00
00
00
00
00
00
FF
EF
EE
FF
0F
00
00
00
00
00
00
00
00
00
00
00
10
11
01
00
00
00
00
00
00
00
00
00
01
11
10
11
11
11
11
11
11
11
00
00
00
00
10
11
11
12
11
12
11
11
00
00
00
00
00
00
0F
11
21
11
01
01
00
00
00
FF
00
00
00
00
EE
FE
FF
FF
FF
EE
FF
FF
FF
0F
00
00
00
00
DD
BC
BB
DC
ED
EE
FF
00
00
00
00
00
00
00
DE
DD
DD
EE
FF
00
00
00
00
00
00
00
00
00
0F
00
11
10
11
01
01
00
00
00
00
00
00
00
11
11
11
01
10
00
00
00
00
00
00
00
00
00
11
11
01
01
00
00
00
00
00
00
00
00
00
00
01
00
00
00
00
00
00
00
00
00
00
00
00
00
00
00
00
00
00
00
00
00
00
00
00
00
00
00
00
00
00
00
00
00
00
00
00
00
00
00
00
00
00
00
00
00
00
00
00
00
00
00
00
00
00
00
00
00
00
00
00
00
00
00
00
00
00
00
00
00
00
00
00
00
00
00
00
00
00
00
00
00
00
00
00
00
00
00
00
00
00
00
00
00
00
00
00
00
01
00
00
00
00
00
00
00
00
00
00
00
00
00
00
10
00
00
00
00
00
00
00
00
00
00
00
00
00
00
00
00
00
00
00
00
00
00
00
00
10
01
00
00
00
00
00
00
00
FF
FF
0F
00
11
01
00
00
00
00
00
00
00
00
00
FF
00
00
00
11
00
00
00
00
00
00
00
00
00
FF
0F
00
00
00
00
00
00
00
00
00
00
00
00
FF
0F
00
00
00
00
00
00
00
00
00
00
00
00
F0
FE
10
01
01
F0
10
00
00
00
00
00
00
00
F0
FE
11
10
01
00
00
00
00
00
00
00
00
00
E0
FE
11
11
11
00
00
00
00
00
00
00
00
01
E0
FD
11
00
10
00
00
00
00
00
00
00
00
11
E0
FD
11
00
00
00
00
00
00
00
00
00
10
11
DF
0C
11
00
11
00
00
00
00
00
00
00
10
11
DF
0D
11
00
00
00
00
00
00
00
00
00
00
11
DF
1E
11
00
10
F0
00
00
00
00
00
00
00
01
EF
1F
11
00
00
00
00
00
00
00
00
00
00
00
FF
10
01
00
00
F0
00
00
00
00
00
00
00
00
0F
10
01
00
00
0F
00
00
00
00
00
00
00
00
00
00
00
00
00
00
00
00
00
00
00
00
00
00
00
00
00
00
00
00
00
00
00
00
00
00
00
00
00
00
00
00
00
00
00
00
00
00
00
00
00
00
00
00
00
00
00
00
00
00
00
00
00
00
00
00
00
00
00
00
00
00
00
00
00
00
00
00
00
00
00
00
00
00
00
00
00
00
00
00
00
00
00
00
00
00
00
00
00
10
00
00
00
00
00
00
00
00
00
00
00
00
00
00
00
00
00
00
00
00
00
00
00
00
00
00
00
00
00
00
00
00
00
00
00
00
00
00
00
00
00
00
00
00
00
00
00
00
00
00
00
00
00
00
00
00
00
00
00
00
00
00
00
00
00
00
00
00
00
10
00
00
00
00
00
00
00
00
00
00
00
00
00
00
01
00
00
00
00
00
00
00
00
00
00
00
00
00
00
00
00
00
00
00
00
00
00
00
00
00
00
00
01
00
00
00
00
00
00
00
00
00
00
00
00
00
00
00
00
00
00
00
00
00
00
00
00
00
00
00
00
00
00
00
00
00
00
00
00
00
00
00
00
00
00
00
00
00
00
00
00
00
00
00
00
00
00
00
00
00
00
00
00
00
00
00
00
00
00
00
00
00
00
00
00
00
00
00
00
00
00
00
00
00
00
00
00
00
00
00
00
00
00
00
00
00
00
00
00
00
00
00
00
00
00
00
00
00
00
00
00
00
00
00
00
00
00
00
00
00
00
00
00
00
00
00
00
00
00
00
00
00
00
00
00
00
00
00
00
00
00
00
00
00
00
00
00
00
00
00
00
00
00
00
00
00
00
00
00
00
00
00
00
00
00
00
00
00
00
00
00
00
00
00
00
00
00
00
00
00
00
00
00
00
00
00
00
00
00
00
00
00
00
00
00
00
00
00
00
00
00
00
00
00
00
10
00
00
00
00
10
00
00
00
00
00
00
00
00
01
00
00
00
00
10
00
00
00
00
01
00
F0
0F
01
00
00
00
00
00
11
00
00
10
01
F0
F0
1F
11
00
00
F0
0F
00
10
00
00
01
00
FF
FF
10
11
F0
00
00
00
0F
11
00
00
00
F0
FF
FF
11
11
F0
F0
F0
0F
00
10
00
10
00
EF
FE
0F
11
11
F0
0F
FF
FF
0F
10
00
00
EF
DD
FF
10
01
01
00
FF
FF
FF
0F
10
00
F0
DE
FD
10
11
01
01
00
00
FF
FF
0F
10
00
FF
EE
0F
10
01
00
00
00
F0
FF
FF
FF
00
F0
FF
EE
00
00
00
00
00
00
00
F0
FF
0F
00
EF
EE
FE
10
11
11
11
01
00
00
FF
FF
0F
00
01
00
00
F0
FF
0F
00
00
00
00
00
00
00
00
00
00
00
F0
FF
00
00
00
00
00
00
00
00
00
00
00
00
F0
0F
00
00
00
00
00
00
00
00
00
01
00
00
F0
FF
00
00
00
00
00
00
00
00
00
00
00
00
F0
FF
0F
00
00
00
00
00
00
00
00
00
00
00
F0
FF
0F
00
00
00
00
00
00
00
00
00
00
00
F0
FF
0F
00
00
00
00
00
00
00
00
00
00
00
00
FF
0F
00
00
00
00
00
00
00
00
00
00
F0
F0
FF
0F
00
00
00
00
00
00
00
00
00
00
00
FF
FF
0F
00
00
00
00
00
00
00
00
00
00
F0
0F
FF
0F
00
00
00
00
00
00
00
00
00
00
F0
FF
FF
0F
00
00
00
00
00
00
00
00
00
00
FF
F0
FF
0F
00
01
00
00
00
00
00
00
00
00
0F
F0
FF
0F
00
01
00
00
00
00
00
00
00
00
00
FF
0F
00
00
00
00
00
00
00
00
00
00
00
00
F0
0F
00
00
00
00
00
00
00
00
00
00
00
00
00
00
00
00
00
00
00
00
00
00
00
00
00
00
00
00
00
00
00
00
00
00
00
00
00
00
00
00
00
00
00
00
00
00
00
00
00
00
00
00
00
00
00
00
00
00
00
00
00
00
00
00
00
00
00
00
00
00
00
00
00
00
00
00
00
00
00
00
00
00
00
00
00
00
00
00
00
00
00
00
00
00
00
00
00
00
00
00
00
00
00
00
00
00
00
00
00
00
00
00
00
00
00
00
00
00
00
00
00
00
00
00
00
00
00
00
00
00
00
00
00
00
00
00
00
00
00
00
00
00
00
00
00
00
00
00
00
00
00
00
00
00
00
00
00
00
00
00
00
00
00
00
00
00
00
00
00
00
00
00
00
00
00
00
00
01
00
00
00
00
00
00
00
00
00
00
00
00
00
00
00
00
00
00
00
00
00
00
00
00
00
00
00
00
00
00
00
00
00
00
00
00
00
00
00
00
00
00
00
00
00
00
00
00
00
00
00
00
00
00
00
00
00
00
00
00
00
00
00
00
00
00
00
00
00
00
00
00
00
00
00
00
00
00
00
00
00
00
00
00
00
00
00
00
00
00
00
00
00
00
00
00
00
00
00
00
00
00
00
00
00
00
00
00
00
00
00
00
00
00
00
00
00
00
00
00
00
00
00
00
00
00
00
00
00
00
00
00
00
00
00
00
00
00
00
00
00
00
00
00
00
00
00
00
00
00
00
00
00
00
00
00
00
00
00
00
00
00
00
00
00
00
00
00
00
00
00
00
00
00
00
00
00
00
00
00
00
00
00
00
00
00
00
00
00
00
00
00
00
00
00
00
00
00
00
00
00
00
00
00
00
00
00
00
00
00
00
00
00
00
00
00
00
00
00
00
00
00
00
00
00
00
00
00
00
00
00
00
00
00
00
00
00
00
00
00
00
00
01
00
00
01
00
00
00
00
00
00
00
0F
00
10
01
FF
0F
11
00
00
00
00
00
0F
00
00
00
11
F1
FF
0F
11
00
00
00
00
00
FF
00
00
00
10
F0
FF
FF
11
01
00
00
00
00
0F
00
00
00
11
F0
FF
0E
12
11
F0
00
FF
FF
00
00
00
00
11
FF
FF
0E
01
11
00
F0
F0
FF
00
00
00
10
01
FF
EE
1E
01
11
00
00
00
F0
00
00
00
10
01
F0
ED
1F
01
11
00
00
00
F0
00
00
00
10
01
EF
ED
10
11
01
00
00
00
00
00
00
10
11
F0
EE
FD
11
10
01
00
00
00
00
00
00
00
F0
CE
BB
FC
10
11
11
01
00
00
10
11
00
00
00
00
00
00
00
00
00
00
00
00
11
00
00
00
00
00
00
00
00
00
00
00
00
00
00
00
00
00
00
00
00
00
00
00
00
00
00
00
00
00
00
00
00
00
00
00
00
00
00
00
00
00
00
00
00
00
00
00
00
00
00
00
00
00
00
00
00
00
00
00
00
00
00
00
00
00
00
00
00
00
00
00
00
00
00
00
00
00
00
00
00
00
00
00
00
00
00
00
00
00
00
00
00
00
00
00
00
00
00
00
00
00
00
00
00
00
00
00
00
00
00
00
00
00
00
00
00
00
00
00
00
00
00
00
00
00
00
00
00
00
00
00
00
00
00
00
00
00
00
00
F0
00
00
00
00
00
00
00
00
00
00
00
00
00
00
00
00
00
00
00
00
00
00
00
F0
00
0F
00
00
00
00
00
00
00
00
F0
FF
FF
FF
FF
FF
00
00
00
00
00
00
00
00
F0
FF
FF
FF
FF
FF
00
00
00
00
00
00
00
00
F0
FF
FF
FF
FF
FF
00
00
00
00
00
00
00
00
00
FF
FF
00
F0
FF
00
00
00
00
00
00
00
00
00
F0
FF
0F
0F
00
00
00
00
00
00
00
00
00
00
F0
FF
FF
0F
00
00
00
00
00
00
00
00
00
00
00
F0
FF
00
00
00
00
00
00
00
00
00
00
00
00
F0
FF
00
00
00
00
00
00
00
00
00
00
00
00
00
FF
F0
00
00
00
00
00
00
00
00
00
00
00
00
00
00
00
00
00
00
00
00
00
00
00
00
00
00
00
00
00
00
00
00
00
00
00
00
00
00
00
00
00
00
00
00
00
00
00
00
00
00
00
00
00
00
00
00
00
00
00
00
00
00
00
00
00
00
00
00
00
00
00
00
00
00
00
00
00
00
00
00
00
00
00
00
00
00
00
11
00
00
00
00
10
00
00
00
00
00
00
00
00
01
00
00
00
00
00
00
00
00
00
00
00
00
00
00
00
00
00
00
00
00
00
00
00
00
00
00
00
00
00
F0
F0
0F
00
00
00
00
00
00
00
00
00
00
00
00
00
0F
00
00
00
00
00
00
00
00
00
00
00
F0
FF
FF
00
00
00
00
00
00
00
00
00
00
00
FF
FF
FF
00
00
00
00
00
00
00
00
00
00
00
00
F0
FF
00
00
00
00
00
00
00
00
00
00
00
FF
FF
FF
0F
00
00
00
00
00
00
00
00
00
00
FF
FF
FF
FF
00
00
00
00
00
00
00
00
00
F0
F0
FF
FF
FF
00
00
00
00
00
00
00
00
00
00
00
FF
FF
FF
0F
00
00
00
00
00
00
00
00
00
00
F0
FF
FF
FF
10
00
00
00
00
00
00
00
00
00
00
F0
FF
FF
0F
01
00
00
00
00
00
00
00
00
00
00
FF
FF
0F
01
00
00
00
00
00
00
00
00
00
00
00
FF
0F
01
00
00
00
00
00
00
00
00
00
00
00
F0
0F
00
00
00
00
00
00
00
00
00
00
00
00
00
0F
00
00
00
00
00
00
00
00
00
00
00
00
00
00
00
00
00
00
00
00
00
00
00
00
00
00
00
00
00
00
00
00
00
00
00
00
00
00
00
00
00
00
00
00
00
00
00
00
00
00
00
00
00
00
00
00
00
00
00
00
00
00
00
00
00
00
00
00
00
00
00
00
00
00
00
00
00
00
00
00
00
00
00
00
00
00
00
00
00
00
00
00
00
00
00
00
00
00
00
00
00
00
00
00
00
00
00
00
00
00
00
00
00
00
00
00
00
00
00
00
00
00
00
00
00
00
00
00
00
00
00
00
00
00
00
00
00
00
00
00
00
00
00
00
00
00
00
F0
00
00
00
00
00
00
00
00
00
00
00
10
00
00
00
00
00
00
00
00
00
00
00
00
00
00
00
00
00
00
00
00
00
00
00
00
00
00
00
00
0F
00
00
00
00
00
00
00
00
00
00
00
00
00
00
00
00
00
00
00
00
00
00
00
00
00
00
00
00
00
00
00
00
00
00
00
00
00
00
00
00
00
00
00
00
00
00
00
00
00
00
00
00
00
00
00
00
00
00
00
00
00
00
00
00
00
00
00
00
00
00
00
00
00
00
00
00
00
00
00
00
00
00
00
00
00
00
00
00
00
F0
00
00
00
00
00
00
00
00
00
00
00
00
00
FF
00
00
00
00
00
00
00
01
00
00
00
10
F0
FE
00
00
00
00
00
00
00
00
00
00
00
10
EF
0E
00
00
00
00
00
00
00
00
01
00
10
01
DE
0F
00
00
00
00
00
00
00
00
01
00
10
F1
DC
00
00
00
00
00
00
00
00
01
00
00
10
E1
EC
10
00
00
00
00
00
00
00
01
01
00
11
E0
FD
01
00
00
00
00
00
00
00
00
00
00
10
F0
0F
01
00
00
00
00
00
00
00
00
00
00
00
F0
0F
00
00
00
00
00
00
00
00
00
00
00
00
00
00
00
00
00
00
00
00
00
00
00
00
00
00
00
00
00
00
00
00
00
00
00
00
00
00
00
00
00
00
00
00
00
00
00
00
00
00
00
00
00
00
00
00
00
00
00
00
00
00
00
00
00
00
00
00
00
00
00
00
00
00
00
00
00
00
00
00
00
00
00
00
00
00
00
00
00
00
00
00
00
00
00
00
00
00
00
00
00
00
00
00
00
00
00
00
00
00
00
00
00
00
00
00
00
00
00
00
00
00
00
00
00
00
00
00
00
00
00
00
00
00
00
00
00
00
00
00
00
00
00
00
00
00
00
00
00
00
00
00
00
00
00
00
00
00
00
00
00
00
00
00
00
00
00
00
00
00
00
00
00
00
00
00
00
00
00
00
00
00
00
00
00
00
00
00
00
00
00
00
00
00
00
00
00
00
00
00
00
00
00
00
00
00
00
00
00
00
00
00
00
00
00
00
00
00
00
00
0F
00
00
00
00
00
00
00
00
00
00
00
00
00
00
00
00
00
00
00
00
00
00
00
00
F0
00
00
00
00
00
00
00
00
00
00
00
00
00
F0
00
00
00
0F
F0
00
00
00
0F
00
00
00
00
F0
00
00
00
00
0F
F0
00
FF
0F
F0
00
0F
00
00
00
00
00
00
00
00
0F
FF
00
00
00
00
00
00
00
00
00
00
00
00
00
00
00
00
F0
0F
00
00
00
00
00
00
00
00
00
00
00
00
00
0F
00
00
00
00
00
00
00
00
00
00
00
00
00
00
00
10
00
00
00
11
00
00
00
00
00
00
00
10
01
11
00
00
00
00
00
00
10
01
10
11
11
11
11
11
00
00
00
00
00
00
10
10
11
11
11
11
11
11
00
00
00
00
00
00
00
00
00
01
10
11
11
11
00
00
00
00
00
00
00
00
00
00
00
00
00
10
00
00
00
00
00
00
00
00
00
00
00
00
00
00
00
00
00
00
00
00
00
00
00
00
00
00
00
00
00
00
00
00
00
00
00
00
00
00
00
00
0F
00
00
00
00
00
00
00
00
00
00
00
00
00
00
00
00
00
00
00
00
00
00
00
00
00
00
00
00
00
00
00
00
00
00
00
00
00
00
00
00
00
00
00
00
00
00
00
00
00
00
00
00
00
00
00
00
00
0F
00
00
00
00
00
00
00
00
00
00
00
01
00
01
00
00
00
00
00
00
00
00
00
00
00
00
00
01
00
00
00
00
00
00
00
00
00
00
00
00
00
00
00
00
00
00
00
00
00
00
00
00
00
00
00
00
00
00
00
00
00
00
00
00
00
00
00
00
00
00
00
00
00
00
00
00
00
00
00
00
00
00
00
01
00
00
00
00
00
00
00
00
00
00
00
00
00
00
00
00
00
00
00
00
00
00
00
00
00
00
00
00
00
00
00
00
00
00
00
00
00
00
00
00
00
00
FF
F0
FF
0F
0F
00
00
00
00
00
00
00
00
00
FF
FF
FF
FF
FF
0F
FF
0F
00
00
00
00
00
F0
FF
FF
FE
FF
FF
FF
FF
00
00
00
00
00
00
F0
FF
FF
FF
FF
FF
FF
FF
0F
00
00
00
00
00
F0
FF
00
0F
00
00
00
00
F0
00
00
00
00
00
00
00
00
00
00
00
00
00
00
00
00
00
00
00
00
00
00
00
00
00
00
00
00
00
00
00
00
00
00
00
00
00
00
00
00
00
00
00
00
00
00
00
00
00
00
00
00
00
00
00
00
00
00
00
00
00
00
00
00
00
00
00
00
00
00
00
00
00
00
00
01
00
00
00
00
00
00
00
00
00
00
00
00
00
00
00
00
00
00
00
00
00
00
00
00
00
00
00
00
00
00
00
00
00
00
00
00
00
00
00
00
00
00
00
00
00
00
00
00
00
00
00
00
00
00
00
00
00
00
00
00
00
00
00
00
00
00
00
00
01
00
00
00
00
00
00
00
00
00
00
00
00
00
00
00
00
00
00
00
00
00
00
00
00
00
00
00
00
00
00
00
00
00
00
00
FF
00
00
00
00
00
00
00
00
00
00
00
00
00
00
00
00
00
00
00
00
11
00
00
00
0F
00
F0
FF
0F
00
00
00
00
00
00
00
00
00
00
00
00
F0
F0
FF
00
00
00
00
01
00
00
00
00
00
00
00
F0
0F
00
00
00
00
00
00
00
00
00
00
00
FF
FF
0F
00
00
00
00
00
00
00
00
00
00
FF
FF
FF
0F
00
00
00
00
00
00
00
00
00
00
F0
FF
FF
0F
00
00
00
00
00
00
00
00
FF
FF
FF
FF
0F
00
00
00
00
00
00
00
00
FF
F0
FF
FF
FF
0F
00
00
00
00
00
00
00
00
FF
FF
FF
FF
0F
00
00
00
00
00
00
00
0F
00
0F
FF
FF
00
00
00
00
00
00
00
00
00
00
00
00
00
00
00
00
01
00
00
00
00
00
00
00
00
00
00
00
00
11
11
00
00
00
00
00
00
00
00
00
00
00
10
11
10
00
00
00
00
00
00
00
00
00
00
00
00
00
00
00
00
00
00
10
00
00
00
00
00
00
00
00
F0
F0
0F
00
00
00
00
00
00
00
00
00
00
F0
F0
FF
FF
0F
00
00
00
00
00
00
00
00
00
00
00
00
F0
00
00
00
00
00
00
00
00
00
00
00
00
00
00
00
00
00
00
00
00
00
00
00
00
00
00
00
00
00
00
00
00
00
00
00
00
00
00
00
00
00
00
00
00
00
00
00
00
00
00
00
00
00
00
00
00
00
00
00
00
00
00
00
00
00
00
00
00
00
00
00
00
00
00
00
00
00
00
00
00
00
00
00
00
00
00
00
00
00
00
00
00
00
00
00
00
00
00
00
00
00
00
00
00
00
00
00
00
00
00
00
00
00
00
00
00
00
00
00
00
00
00
00
00
00
00
00
00
00
00
00
00
00
00
00
00
00
00
00
00
00
00
00
00
00
00
00
00
00
00
00
00
00
00
00
00
00
00
00
00
00
00
00
00
00
00
00
00
00
00
00
11
11
00
00
01
00
00
00
00
00
00
00
10
11
01
00
00
00
00
00
00
00
00
00
00
00
00
00
01
00
00
00
00
00
00
00
00
00
00
00
00
10
00
00
0F
00
00
00
00
00
00
00
00
00
00
00
00
00
00
00
00
00
00
00
00
00
00
00
00
00
00
00
F0
0F
00
00
00
00
00
00
00
00
00
00
00
00
FF
FF
0F
00
00
00
00
00
FF
00
00
00
00
00
00
FF
0F
00
00
00
00
00
FF
00
00
00
00
00
00
F0
FF
00
01
00
00
FF
0F
00
00
00
00
00
00
FF
FF
00
00
00
F0
FF
0F
00
00
00
00
00
00
FF
FF
00
00
00
F0
FF
0F
F0
00
00
00
00
F0
FF
00
00
00
00
FF
FF
FF
0F
00
00
00
00
FF
0F
00
00
00
00
F0
FF
FF
FF
00
00
00
00
FF
0F
00
00
00
00
00
00
FF
0F
F0
00
00
00
0F
00
00
00
00
00
00
00
FF
00
00
00
00
00
00
00
00
00
00
00
00
00
00
00
00
00
00
00
00
00
00
00
00
00
00
00
00
00
00
00
00
00
00
00
00
00
00
00
00
00
00
00
00
00
00
00
00
00
00
00
00
00
00
00
00
00
00
00
00
00
00
00
00
00
00
00
00
00
00
00
00
00
00
00
00
00
00
00
00
00
00
00
00
00
00
10
00
00
00
00
00
00
00
00
00
00
00
00
00
00
00
00
00
00
00
00
00
00
00
00
00
00
00
10
00
00
00
00
00
00
00
00
00
00
00
00
00
10
00
00
00
00
00
00
00
00
00
00
00
00
00
10
00
00
00
00
00
00
00
00
00
00
00
00
00
00
00
00
00
00
00
00
00
00
00
00
00
00
00
00
00
00
00
00
00
00
00
00
00
00
00
00
00
11
12
00
FF
0F
10
11
12
F1
AC
EC
0F
00
00
10
12
00
FF
0F
00
11
11
F1
CC
1F
00
00
00
00
11
00
FF
FF
10
11
11
D0
DB
10
01
00
00
10
00
00
FF
0F
10
11
11
CF
FB
11
00
00
00
00
01
00
FF
0F
00
10
01
BE
0D
01
00
00
00
00
00
00
00
0F
00
10
01
DE
0F
01
01
00
00
00
00
00
00
00
10
11
F0
EE
1F
01
00
00
00
00
00
00
00
00
10
11
F0
EE
10
01
00
00
00
00
00
00
00
00
00
10
FF
FF
10
00
00
00
00
00
00
00
00
00
00
00
F0
0F
01
00
00
00
0F
FF
00
00
00
00
00
00
F0
0F
00
00
00
00
F0
00
00
00
00
00
00
00
00
00
00
00
00
00
00
00
00
00
00
00
00
00
00
00
00
00
00
00
00
00
00
00
00
00
00
00
00
00
00
00
00
00
00
00
00
00
00
00
00
00
00
00
00
00
00
00
00
00
00
00
00
00
00
00
00
00
00
00
00
00
00
00
00
00
00
00
00
00
00
00
00
00
00
00
00
00
00
00
00
00
00
00
00
00
00
00
00
00
00
00
00
00
00
00
00
00
00
00
00
00
00
00
00
00
00
00
00
00
00
00
00
00
00
00
00
00
00
00
00
00
00
00
00
00
00
00
00
00
00
00
00
00
00
00
00
00
00
00
00
00
00
00
00
00
00
00
00
00
00
00
00
00
00
00
00
00
00
00
00
00
00
00
00
00
00
00
00
00
00
00
00
00
00
00
00
00
00
00
00
00
00
00
00
00
00
00
00
00
00
00
00
00
00
00
00
00
00
00
00
00
00
00
00
00
00
00
00
00
00
00
00
00
00
00
00
00
00
00
00
00
00
00
00
00
00
00
00
00
00
00
01
00
00
00
00
00
00
00
00
00
00
00
00
00
00
00
00
00
00
00
00
00
00
00
00
00
00
00
00
00
00
00
00
00
00
00
00
00
00
00
00
00
00
00
00
00
00
00
00
00
00
00
00
00
00
00
00
00
00
00
00
00
00
00
00
00
00
00
00
00
00
00
00
00
00
00
00
00
00
00
00
00
00
00
00
00
00
00
00
00
00
00
00
00
00
00
00
00
00
00
00
00
00
00
00
00
00
00
00
00
00
00
00
00
00
00
00
00
00
00
00
00
00
00
00
00
00
00
00
00
00
00
00
00
00
00
00
00
00
00
00
00
00
00
00
00
00
00
00
00
00
00
00
00
00
00
00
00
00
00
00
00
00
00
00
00
00
00
00
00
00
00
00
00
00
00
00
00
00
00
00
00
00
00
00
00
00
00
00
00
00
00
00
00
00
00
00
00
00
00
00
00
00
00
00
00
00
00
00
00
00
00
00
00
00
00
00
00
00
00
00
00
00
00
00
00
00
00
00
00
00
00
00
00
00
00
00
00
00
00
00
00
00
00
00
00
00
00
00
00
00
10
00
00
00
00
00
00
00
00
00
00
00
00
00
00
00
00
00
00
00
FF
F0
FF
FF
FF
00
00
00
00
00
00
00
00
00
FF
FF
FF
FF
00
00
00
00
10
00
10
01
10
11
01
00
00
00
11
11
00
01
00
00
00
11
11
11
11
11
11
11
11
01
11
00
00
FF
00
00
10
11
11
11
11
11
01
01
00
00
0F
F0
00
00
00
00
00
01
00
11
00
01
00
00
0F
00
00
00
00
00
00
00
00
00
00
00
00
FF
F0
00
F0
00
00
00
00
00
00
F0
FF
FF
FF
FF
0F
00
00
0F
FF
FF
EF
EE
DD
DD
DD
DD
EE
FE
FF
00
00
00
00
00
00
00
00
00
00
00
00
00
00
00
00
00
00
00
00
00
00
00
00
00
00
00
00
00
00
00
00
00
00
00
00
00
00
00
00
00
00
00
00
00
00
00
00
00
00
00
00
00
00
00
00
00
00
00
00
00
01
01
00
00
00
00
00
00
00
00
00
00
00
00
11
01
00
00
00
00
00
00
00
00
00
00
00
11
11
11
00
00
00
00
00
00
00
00
00
00
10
11
11
11
00
00
00
00
00
00
00
00
00
00
01
00
11
00
00
00
00
00
00
00
00
00
00
00
00
00
00
FF
0F
00
00
00
00
00
00
00
00
00
00
00
F0
EE
FF
0F
00
00
00
00
00
00
00
00
00
00
F0
FF
FF
00
00
00
00
00
00
00
00
00
00
00
F0
FF
00
00
00
00
00
00
00
01
00
00
00
00
F0
0F
00
00
00
00
00
00
00
00
00
00
00
00
F0
00
00
00
00
00
00
00
00
00
00
00
00
00
00
00
00
00
00
00
00
00
00
00
00
00
00
00
00
00
00
00
00
00
00
00
00
00
00
00
00
00
00
00
00
00
00
00
00
00
00
00
00
00
00
00
00
00
00
00
00
00
00
00
00
00
00
00
00
00
00
00
00
00
00
00
00
00
00
00
00
00
00
00
00
00
00
00
00
00
00
00
00
00
00
00
00
00
00
00
00
00
00
00
00
00
00
00
00
00
00
00
00
00
00
00
00
00
00
00
00
00
00
00
00
00
00
00
00
00
00
00
00
00
00
00
00
00
00
00
00
00
00
00
00
00
00
00
00
00
00
00
00
00
00
00
00
00
00
00
00
00
00
00
00
00
00
00
00
00
00
00
00
00
00
00
00
00
00
00
00
00
00
00
01
00
00
00
00
00
00
EE
FE
0F
00
00
00
00
00
00
00
00
00
00
00
FE
FF
0F
00
00
00
00
00
00
00
00
00
00
F0
FF
0F
00
00
00
00
00
00
00
00
00
00
00
00
FF
0F
00
00
00
00
00
00
00
00
00
00
00
00
FF
0F
00
00
00
00
00
00
00
00
00
00
00
00
FE
FF
00
00
01
00
00
00
00
00
00
00
00
00
EF
FF
00
10
01
00
00
00
00
00
00
00
00
00
EE
0F
00
11
01
F0
FF
00
00
00
00
00
00
00
FE
0F
10
11
01
FF
0F
00
00
00
00
00
00
00
FE
00
10
11
02
EF
00
00
00
00
00
00
00
00
FF
00
10
11
02
FE
00
00
00
00
00
00
00
00
FF
00
10
11
02
FE
00
00
00
00
00
00
00
00
F0
00
00
11
02
FE
00
00
00
00
00
00
00
00
0F
00
01
10
02
FE
0F
00
00
00
00
00
00
00
00
00
00
11
01
FF
00
00
00
00
00
00
00
00
0F
00
00
10
01
F0
00
00
00
00
00
00
00
00
00
00
00
10
01
F0
00
00
00
00
00
00
00
00
0F
00
00
00
01
00
00
00
00
00
00
00
00
0F
0F
00
00
00
00
00
00
00
00
00
00
00
00
00
0F
0F
00
00
00
00
00
00
00
00
00
00
00
00
00
0F
00
00
00
00
00
00
00
00
00
00
00
00
00
00
00
00
00
00
00
00
00
00
00
00
00
00
00
00
00
00
00
00
00
00
00
00
00
00
00
00
00
00
00
00
00
00
00
00
00
00
00
00
00
00
00
00
00
00
00
00
00
00
00
00
00
00
00
00
00
00
00
00
00
00
00
00
00
00
00
00
00
00
00
00
00
00
00
00
00
00
00
00
00
00
00
00
F0
00
00
00
FF
00
00
00
00
00
00
00
00
0F
12
01
00
00
00
00
00
00
00
00
00
00
00
10
01
00
00
00
00
00
00
00
00
00
00
00
00
10
00
00
00
00
00
00
00
00
00
00
00
00
00
00
01
00
00
00
00
00
00
00
00
00
00
00
00
00
00
00
00
00
00
00
00
00
00
00
00
00
00
00
00
00
00
00
00
00
00
00
00
00
00
00
00
00
00
00
00
00
00
00
00
00
00
00
00
00
00
00
00
00
00
00
00
00
00
00
00
00
00
00
00
00
01
00
00
00
00
00
00
00
00
00
00
00
00
00
00
00
00
00
00
00
00
00
00
00
00
00
00
00
00
00
00
00
00
00
00
00
00
00
00
00
00
00
00
00
00
00
00
00
00
00
00
00
00
00
00
00
00
00
00
00
00
00
00
FF
0F
00
00
00
00
00
00
00
00
00
11
01
EF
FE
00
00
00
00
00
00
00
00
00
00
00
E0
ED
0F
00
00
00
00
00
00
00
00
00
F0
EF
DC
0F
00
00
00
00
00
00
00
00
FF
EF
DE
CD
0E
00
00
00
00
00
00
00
00
F0
FF
EE
DE
FE
00
00
00
00
00
00
00
00
00
FF
FF
FE
FF
10
00
00
00
00
00
00
00
00
00
FF
F0
00
00
00
00
00
00
00
00
00
00
00
00
0F
00
00
00
00
00
00
00
00
00
00
00
00
00
00
00
00
00
00
00
00
00
00
00
00
00
00
00
00
00
00
00
00
00
00
00
00
00
00
00
00
00
00
00
00
00
00
00
00
00
00
00
00
00
00
00
00
00
00
00
00
00
00
00
00
00
00
00
00
00
00
F0
00
00
00
00
00
00
00
00
00
00
00
00
00
00
00
00
00
00
00
00
00
00
00
00
00
00
01
00
00
00
00
00
00
00
00
00
00
00
00
10
01
00
00
00
00
00
00
00
00
00
00
00
00
00
00
00
00
00
00
00
00
00
00
00
00
00
00
00
00
00
00
00
00
00
00
00
00
00
00
00
00
00
00
00
00
00
00
00
00
00
00
00
00
00
00
00
00
00
00
00
00
00
00
00
00
00
00
00
00
00
00
00
00
00
00
00
00
00
00
00
00
00
00
00
00
00
00
00
00
00
00
00
00
00
00
00
00
00
00
00
00
00
00
00
00
00
00
00
00
00
00
00
00
00
00
00
00
00
00
00
00
00
00
00
00
00
00
00
00
00
00
00
00
00
00
00
00
00
00
00
00
00
00
00
00
00
00
00
00
00
00
00
00
00
00
00
00
00
00
00
00
00
00
00
00
00
00
00
00
00
00
00
00
00
00
00
00
00
00
00
00
00
00
00
00
00
00
00
00
00
00
00
00
00
00
00
00
00
00
00
00
00
00
00
00
00
00
00
00
00
00
00
00
00
00
00
00
00
00
00
00
00
00
00
00
00
00
00
00
00
00
00
00
00
00
00
00
00
00
00
00
00
00
00
FF
0F
00
00
00
00
00
00
00
00
00
00
00
FF
FF
FF
0F
00
00
00
00
00
00
00
00
00
00
F0
FF
FF
0F
00
00
00
00
00
00
00
00
00
00
F0
FF
FF
FF
0F
00
00
00
00
00
00
00
00
00
F0
FF
FE
FF
0F
00
00
00
00
00
00
00
00
00
F0
FF
FF
FF
FF
0F
00
00
00
00
00
00
00
00
00
F0
FF
FF
FF
FF
00
00
00
00
00
00
00
00
00
00
FF
FF
0F
0F
00
00
00
00
00
00
00
00
00
00
FF
FF
0F
0F
00
00
00
00
00
00
00
00
00
00
F0
0F
FF
FF
00
00
00
00
00
00
00
00
00
00
0F
00
F0
0F
00
00
10
02
11
00
00
00
FF
00
10
01
00
00
00
10
11
01
00
00
00
00
00
0F
00
00
00
00
00
00
10
00
00
00
00
00
F0
FF
00
00
00
00
00
00
00
01
00
00
00
00
FF
FF
00
00
00
00
00
00
00
00
00
00
00
00
FF
FF
00
00
00
00
00
00
00
00
00
00
00
00
FF
FE
00
00
00
00
00
00
00
00
00
00
00
00
F0
FE
00
00
F0
00
00
00
00
00
00
00
00
00
F0
FE
00
00
00
00
00
00
00
00
00
00
00
00
00
F0
00
00
00
00
00
00
00
00
00
00
00
00
00
00
00
00
00
00
00
00
00
01
00
00
00
00
00
00
00
00
00
00
00
00
00
00
00
00
00
00
00
00
00
00
00
00
00
00
00
00
00
00
00
00
00
00
00
00
00
00
00
00
00
00
00
00
00
00
00
00
00
00
00
00
00
00
00
00
00
00
00
00
0F
00
00
00
00
00
00
00
00
01
00
00
F0
FF
FF
FF
00
00
0F
00
00
00
00
00
FF
FF
FF
FF
FF
00
00
00
00
00
00
00
00
F0
FF
FF
FF
FF
00
0F
00
00
00
00
00
00
00
F0
FF
FF
0F
00
00
00
00
00
00
00
00
00
00
00
FF
00
00
00
00
00
00
00
00
00
00
00
00
00
00
00
00
00
00
00
00
00
00
00
00
00
00
00
00
00
00
00
00
00
00
00
00
00
00
00
00
01
00
00
00
00
00
00
00
00
00
00
00
00
00
01
00
00
00
00
00
00
00
00
00
00
00
00
00
01
00
00
00
00
00
00
00
00
00
00
00
00
00
01
00
00
00
00
00
00
00
00
00
00
00
00
00
01
00
00
00
00
00
00
00
00
00
00
00
00
10
11
00
00
00
00
00
00
00
00
00
00
00
00
10
00
00
00
00
00
00
00
00
00
F0
00
00
00
10
00
00
00
00
00
00
00
00
00
00
0F
00
00
00
00
00
00
00
00
00
00
00
00
FF
0F
00
00
00
00
00
00
00
00
00
00
00
00
FF
0F
00
00
00
00
00
00
00
00
00
00
00
F0
FF
00
00
00
00
00
00
00
00
00
00
00
00
F0
FF
00
00
00
00
00
00
00
00
00
00
00
00
FF
FF
00
00
00
00
00
00
00
00
00
00
00
00
FF
FF
00
00
00
00
00
00
00
00
00
00
00
F0
FF
0F
FF
0F
00
00
00
00
00
00
00
00
00
FF
FF
FF
0F
00
00
00
00
00
00
00
00
10
01
FF
FF
FF
FF
FF
00
00
00
00
00
00
00
00
01
FF
FF
FF
FF
FF
F0
00
00
00
00
00
00
00
00
00
0F
FF
FF
FF
00
F0
00
00
00
00
00
00
00
00
00
00
00
00
00
00
00
00
00
00
00
00
00
00
00
00
00
00
00
F0
00
00
00
00
00
00
00
00
00
00
00
00
00
00
00
00
00
00
00
00
00
00
00
00
00
00
00
00
00
00
00
00
00
00
00
00
00
00
00
00
00
00
00
00
00
00
00
00
00
00
00
00
00
00
00
00
00
00
00
00
00
00
00
00
00
00
00
00
00
00
00
00
00
00
00
00
00
00
00
00
00
00
00
00
00
00
00
00
00
00
00
00
00
00
00
00
00
00
00
00
00
00
00
00
00
00
00
00
00
00
00
00
00
00
00
00
00
00
00
00
00
00
00
00
00
00
00
00
00
00
00
00
00
00
00
00
00
00
00
00
00
00
00
00
00
00
00
00
00
00
00
00
00
00
00
00
00
00
00
00
00
00
00
00
00
00
00
10
00
00
00
00
00
00
00
00
00
00
00
00
00
10
11
00
00
FF
FF
FF
00
00
00
00
00
00
00
00
01
00
00
F0
FF
0F
00
00
00
00
00
00
00
00
01
00
00
F0
FF
00
00
00
00
00
00
00
00
00
00
00
00
00
FF
0F
00
00
00
00
00
00
00
00
01
00
00
00
F0
0F
00
00
00
00
00
00
00
00
00
00
00
00
FF
0F
00
00
00
00
00
00
00
00
01
00
00
00
FF
0F
00
00
00
00
00
00
00
00
01
00
00
00
F0
00
00
00
00
00
00
00
00
00
00
00
00
00
00
00
00
00
00
00
00
00
00
00
01
00
00
00
00
00
00
00
00
00
00
00
00
00
00
00
00
00
00
00
00
0F
00
00
00
00
00
00
00
00
00
00
00
00
00
0F
00
00
00
00
00
00
00
00
00
00
00
00
F0
0F
00
00
00
00
00
00
00
00
00
00
00
10
F0
0E
00
00
00
00
00
00
00
00
00
00
00
10
E0
0E
00
00
00
00
00
00
00
00
00
00
00
11
DF
0E
00
00
00
00
00
00
00
00
00
00
00
01
DE
0F
00
00
00
00
00
00
00
00
00
00
10
00
ED
10
00
00
00
00
00
00
00
00
00
00
00
F0
FE
00
00
00
00
00
00
00
00
00
00
00
00
F0
0F
00
00
00
00
00
00
00
00
00
00
00
00
00
0F
00
00
00
00
00
00
00
00
00
00
00
00
00
00
00
00
00
00
00
00
00
00
00
01
00
00
00
00
00
00
00
00
00
00
00
00
00
00
00
00
00
00
00
00
00
00
00
00
00
00
00
00
00
00
00
00
00
00
00
00
00
00
00
00
00
00
00
00
00
00
00
00
00
00
00
00
00
00
00
00
00
00
00
00
00
00
00
00
00
00
00
00
00
00
00
00
00
00
00
00
00
00
00
00
00
11
01
10
00
00
00
00
00
00
00
00
00
10
11
01
00
00
00
00
00
00
00
00
00
00
00
00
00
01
00
00
00
00
00
00
00
00
00
00
00
00
00
00
00
00
00
00
00
00
00
00
00
00
00
00
00
01
00
00
00
00
00
00
00
00
00
00
00
00
00
01
00
00
00
00
00
00
00
00
00
00
00
00
00
00
00
00
00
00
00
00
00
00
00
00
00
00
00
00
00
00
00
00
00
00
00
00
00
00
00
00
00
01
00
00
00
00
00
00
00
00
00
00
00
00
00
00
00
00
00
00
00
00
00
00
00
00
00
00
00
00
00
00
10
00
00
00
00
00
00
00
00
00
00
00
00
11
00
F0
FF
0F
00
00
00
00
00
00
00
00
00
00
00
FF
FF
FF
00
F0
00
00
00
00
00
FF
FF
EE
EE
EE
FE
FF
FF
FF
00
00
00
00
00
EF
EE
DD
DD
EE
FF
FF
0F
00
00
00
00
00
00
FF
EE
EE
FF
FF
00
00
00
00
00
00
00
00
00
FF
FF
00
00
01
00
00
00
00
00
00
00
00
00
00
00
00
00
00
00
00
00
00
00
00
00
00
00
00
00
00
00
00
00
00
00
00
00
00
00
00
00
01
00
00
00
00
00
00
00
00
00
00
00
00
00
11
00
00
00
00
00
00
00
00
00
00
00
00
00
00
00
00
00
00
00
00
00
00
00
00
00
00
00
00
00
00
00
00
00
00
00
00
00
00
00
00
00
00
00
00
00
00
00
00
00
00
00
00
00
00
10
01
00
00
00
00
00
00
00
00
00
00
00
00
00
00
00
00
00
00
00
00
00
00
00
00
00
00
00
00
00
00
00
00
00
00
00
00
00
00
00
00
10
01
00
00
00
00
00
00
00
00
00
00
00
00
10
00
00
10
00
00
00
00
00
00
00
00
FF
00
00
01
00
00
00
00
00
00
00
00
00
00
00
01
00
00
00
00
00
00
00
00
00
00
00
00
00
00
00
00
00
00
00
00
00
00
00
00
00
00
00
00
00
00
00
00
00
00
00
00
00
00
00
00
00
00
00
00
00
00
00
00
00
00
00
00
00
00
0F
00
00
00
00
00
00
00
00
00
00
00
00
00
00
00
00
00
00
00
00
00
00
00
00
00
00
00
00
00
00
00
00
00
00
00
00
00
00
00
00
00
00
00
00
00
00
00
00
00
00
00
00
00
00
00
00
00
00
00
00
00
00
00
0F
00
00
00
00
00
00
00
00
00
00
00
00
00
F0
FF
10
11
10
00
00
00
00
00
00
00
00
10
01
EF
0F
11
11
11
11
10
10
00
00
00
00
00
11
F0
EE
FF
10
11
11
11
21
F0
00
00
00
00
10
12
DF
DD
FE
00
11
11
21
00
00
00
00
00
00
21
02
DE
DD
ED
0F
00
01
01
10
00
00
00
00
10
22
02
DE
CC
ED
FF
FF
01
00
00
00
00
F0
0F
21
22
01
DF
CD
ED
DE
00
00
00
00
00
F0
FF
10
21
12
01
DE
ED
EE
00
00
00
00
10
01
F0
0F
10
11
21
E0
EE
EE
00
00
00
00
00
11
00
FF
0F
10
11
11
FF
EE
00
00
00
0F
00
00
00
00
FF
00
11
11
F0
EF
00
00
00
00
00
00
00
00
00
00
00
11
0F
EF
00
00
00
00
00
00
00
01
00
00
00
00
00
FF
00
00
00
00
00
00
00
00
00
00
00
00
00
FF
00
00
00
00
00
00
00
00
00
00
00
F0
00
0F
00
00
00
00
00
00
00
00
00
00
10
00
00
01
00
00
10
00
00
00
00
00
00
00
00
00
00
00
00
00
00
00
00
00
00
00
00
00
00
00
00
00
00
00
00
00
00
00
00
00
00
00
00
00
00
00
00
00
00
00
00
00
00
00
00
00
00
00
00
00
00
00
00
00
00
00
00
00
00
00
00
00
00
00
00
00
00
00
00
00
00
00
00
00
00
00
00
00
00
00
00
00
00
00
00
00
00
00
00
00
00
00
00
00
00
00
00
00
00
00
00
00
00
00
00
00
00
00
00
00
00
00
00
00
00
00
00
00
00
00
00
00
00
00
00
00
00
00
00
00
00
00
00
00
00
00
00
00
00
00
00
00
00
00
00
00
00
00
00
00
00
00
00
00
00
00
00
00
00
00
00
00
00
00
00
00
00
00
00
00
00
00
00
00
00
00
00
00
00
00
00
00
00
00
00
00
00
00
00
00
00
00
00
00
00
00
00
00
00
00
00
00
00
00
00
00
00
00
00
00
00
00
00
00
01
00
00
00
01
00
00
00
00
00
00
00
10
00
11
00
00
10
00
00
00
00
00
00
00
00
10
00
11
11
01
11
00
00
00
00
00
00
00
00
00
00
00
10
11
11
00
00
F0
00
00
00
00
00
FF
FF
F0
00
10
00
00
00
00
0F
0F
00
00
FF
FF
FF
FF
FF
0F
00
00
00
00
F0
00
00
00
00
00
FF
FF
FE
FF
FF
00
00
0F
00
00
00
00
00
00
F0
FF
FF
FF
FF
00
00
00
00
00
00
00
00
00
00
FF
FF
FF
FF
00
00
0F
FF
FF
0F
00
00
00
0F
00
F0
F0
FF
00
00
00
F0
0F
FF
00
00
00
00
00
00
00
F0
00
00
00
00
00
FF
0F
00
00
00
00
00
00
00
00
00
00
F0
0F
FF
FF
00
0F
0F
00
00
00
00
01
00
00
F0
FF
FF
FF
F0
FF
FF
00
0F
00
10
00
00
00
00
00
00
00
00
00
00
00
00
00
00
00
00
00
00
00
00
00
00
00
00
00
00
00
00
00
00
00
00
00
00
00
00
00
00
00
00
00
F0
00
00
00
00
00
00
00
00
00
00
00
00
00
F0
00
00
00
00
00
00
00
00
00
00
00
00
00
F0
00
00
00
00
00
00
00
00
00
00
00
00
00
F0
00
00
00
00
00
00
00
00
00
00
00
F0
0F
F0
00
00
00
00
00
00
00
00
00
00
00
FF
0F
F0
01
00
00
00
00
00
00
00
00
00
FF
FF
FF
F0
00
00
00
00
00
00
00
00
00
F0
FF
FF
FF
F0
00
00
00
00
00
00
00
00
00
FF
FF
FF
0F
00
00
00
00
00
00
00
00
00
F0
FF
FF
FF
00
F0
00
00
00
00
00
00
11
00
FF
FE
FF
FF
0F
00
00
00
00
00
00
00
10
F0
FF
0F
FF
0F
00
F0
00
00
00
00
00
00
11
FF
FF
00
00
00
00
00
00
00
00
00
00
00
00
FF
00
00
00
00
00
00
00
00
00
00
00
00
00
F0
00
00
00
00
00
00
00
00
00
00
00
00
00
00
00
00
00
00
00
00
00
00
00
00
00
00
00
00
00
00
00
00
00
00
00
00
00
00
00
00
00
00
00
00
00
00
00
00
00
00
00
00
00
00
00
00
00
00
00
00
00
00
00
00
00
00
00
00
00
00
00
00
00
00
00
00
00
00
00
00
00
00
00
00
00
00
00
00
00
00
00
00
00
00
00
00
00
00
00
00
00
00
00
00
00
00
00
00
00
00
00
00
00
00
00
00
00
00
00
00
00
00
00
00
00
00
00
00
00
00
00
00
00
00
00
00
00
00
00
00
00
00
00
00
00
00
00
00
00
00
00
00
00
00
00
00
00
00
00
00
00
00
00
00
00
00
00
00
00
10
00
00
00
10
00
00
00
00
00
00
00
00
00
00
00
00
00
00
00
00
00
00
00
00
00
00
00
00
00
00
00
00
00
00
00
00
00
00
00
00
00
00
00
00
00
00
00
00
00
00
00
00
00
00
00
00
00
00
00
00
00
00
00
00
00
00
00
00
00
00
00
00
00
10
00
00
00
00
00
00
00
00
00
00
00
00
00
10
00
00
00
00
00
00
00
00
10
01
00
00
00
00
00
00
00
00
00
00
00
00
10
01
01
00
00
00
00
00
00
00
00
00
00
FF
0F
00
00
00
00
00
00
00
00
00
00
00
00
DF
ED
00
00
00
00
00
01
00
00
00
00
00
00
E0
EE
0F
00
00
00
00
00
00
00
00
00
00
00
F0
EE
0F
00
00
00
00
00
00
00
00
00
00
00
F0
EF
FF
00
00
00
00
00
00
00
00
00
00
00
F0
FF
FF
00
00
00
00
01
00
00
00
00
00
00
00
FF
00
00
00
00
00
01
00
00
00
00
00
00
00
00
00
00
00
00
00
00
00
00
00
00
00
00
00
00
00
00
00
00
00
00
00
00
00
00
00
00
00
00
00
00
00
00
00
00
00
00
00
00
00
00
00
00
00
00
00
00
00
00
00
00
00
00
00
00
00
00
00
00
00
00
00
00
00
00
00
00
00
00
00
00
00
00
00
00
00
00
00
00
00
00
00
00
00
00
00
00
00
00
00
00
00
00
00
00
00
00
00
00
00
00
00
00
00
00
00
00
00
00
00
00
00
00
00
00
00
00
00
00
00
00
00
00
00
00
00
00
00
00
00
00
00
00
00
00
00
00
00
00
00
00
00
00
00
00
10
01
00
00
00
00
00
00
00
00
00
00
00
0F
01
01
00
00
00
00
00
00
00
FF
00
00
00
00
00
10
00
00
00
00
00
00
00
00
00
00
00
00
00
00
00
00
00
00
00
00
00
00
00
00
00
00
00
00
00
00
00
00
00
00
00
00
00
00
00
F0
0F
00
00
00
00
00
00
00
00
00
00
00
00
FF
FF
00
00
00
00
00
00
00
00
00
00
00
F0
FF
FF
00
00
00
00
00
00
00
00
00
00
00
FF
FF
FF
00
00
00
00
00
00
00
00
00
00
F0
EF
FE
FF
00
00
00
00
00
00
00
00
00
00
EF
EE
FF
FF
00
00
00
00
00
00
00
00
00
E0
DE
FE
FF
F0
00
00
00
00
00
00
00
FF
FF
DE
ED
FF
00
00
00
00
00
00
00
00
FF
FF
EE
EE
FF
00
00
00
00
00
00
00
00
00
00
F0
FF
0F
00
00
00
00
00
00
00
00
00
00
00
00
00
00
00
00
00
00
00
00
00
00
00
00
00
00
00
00
00
00
00
00
00
00
00
00
00
00
00
00
00
00
00
00
00
00
00
00
00
00
00
00
00
00
00
00
00
00
00
00
00
00
00
00
00
00
00
00
00
00
00
00
00
10
00
00
00
00
00
00
00
00
00
00
00
00
00
00
00
00
00
00
00
00
00
00
00
00
00
00
00
00
00
00
00
00
00
00
00
00
00
00
00
00
00
00
00
00
00
00
00
00
00
00
00
00
00
00
00
00
00
00
00
00
00
00
00
00
00
00
00
00
00
00
00
00
00
00
00
00
00
00
00
00
00
00
00
00
00
00
00
00
00
00
00
00
00
00
00
00
00
00
00
00
00
00
00
00
00
00
00
00
00
00
00
00
00
00
00
00
00
00
00
00
00
00
00
00
00
10
01
00
00
00
00
00
00
00
00
00
00
00
00
11
00
10
00
00
00
00
00
00
00
00
00
00
00
00
00
00
00
00
00
00
00
00
00
00
00
00
10
00
00
00
00
00
00
00
00
00
00
00
11
11
10
01
00
00
00
00
00
00
00
00
00
10
11
11
10
11
00
00
00
00
00
00
00
00
00
11
11
11
11
01
0F
00
00
00
00
00
00
11
11
11
11
11
01
00
00
00
00
00
00
00
00
00
00
F0
EF
FF
FF
EF
00
00
00
00
00
00
00
FF
DE
CD
BC
CC
DC
CD
00
00
00
00
00
00
F0
FF
FE
EF
EE
DD
DD
DD
00
00
00
00
00
00
00
00
00
00
00
F0
0F
EF
00
00
00
00
00
00
00
00
00
00
11
11
00
F0
00
00
00
00
00
00
00
00
00
11
11
01
11
00
01
00
00
00
00
00
00
00
10
11
00
00
00
00
00
00
00
00
00
00
00
00
00
00
00
00
00
11
00
00
00
00
00
00
00
00
00
00
00
00
00
00
00
00
00
00
00
00
00
00
00
00
00
00
00
00
00
00
00
00
00
00
00
00
00
00
00
00
00
00
00
00
00
00
00
00
00
00
00
00
00
00
00
00
00
00
00
00
00
00
00
00
00
00
00
00
00
00
00
00
00
00
00
00
00
00
00
00
00
00
00
00
00
00
00
00
00
00
00
00
00
00
00
00
00
00
00
00
00
00
00
00
00
00
00
00
00
00
00
00
00
00
00
00
00
00
00
00
00
00
00
00
00
00
00
00
00
00
00
00
00
00
00
00
00
00
00
00
00
00
00
00
00
00
00
00
00
00
00
00
00
00
00
00
00
00
00
00
00
00
00
00
00
00
00
00
00
00
00
00
00
00
00
00
00
00
00
00
00
00
00
00
00
10
00
00
00
00
00
00
00
00
00
00
01
00
00
00
00
00
00
00
00
00
00
00
00
00
00
00
00
00
00
00
00
00
00
00
00
00
00
00
00
10
00
00
00
00
00
00
00
00
00
00
00
00
0F
00
00
00
00
00
00
00
00
00
00
00
00
00
00
00
00
00
00
00
00
00
00
00
00
00
00
00
00
00
00
00
00
00
00
00
00
00
00
00
00
00
00
00
00
00
00
00
00
00
00
00
00
00
00
00
00
00
00
00
00
00
00
00
00
00
00
00
00
00
00
00
00
00
00
00
00
00
00
00
00
00
00
00
00
00
00
00
00
00
00
00
00
00
00
00
00
00
00
00
00
00
00
00
00
00
00
00
00
00
00
00
00
00
00
00
00
00
00
00
00
00
00
00
0F
F0
00
00
00
00
00
F0
00
00
00
00
00
00
F0
0F
00
00
00
00
00
F0
00
00
00
10
00
10
01
00
00
00
00
00
00
00
FF
00
10
11
11
11
11
11
00
00
00
00
00
01
F0
0F
00
11
11
21
11
22
00
00
00
00
00
00
F0
FF
00
00
00
11
21
11
00
00
00
00
00
10
01
FF
FE
FF
FF
00
00
F0
00
00
00
00
00
00
11
F0
EF
EE
EE
DD
DD
CD
00
00
00
00
00
00
10
01
F0
EE
CD
BC
BB
BC
00
00
00
00
00
00
00
11
01
F0
DE
DD
CD
BC
00
00
00
00
00
00
00
11
11
11
01
00
FF
DE
00
00
00
00
00
00
00
00
11
11
12
11
11
F0
00
00
00
00
00
00
00
00
00
10
11
21
12
00
00
00
00
00
00
00
00
00
00
10
11
11
11
00
00
00
00
00
00
00
00
00
00
00
10
10
10
01
00
00
00
00
00
00
00
00
00
00
00
10
11
01
00
00
00
00
00
00
00
00
00
00
00
00
00
10
01
00
00
FF
FF
FF
00
00
00
00
00
00
00
00
00
F0
00
FF
FF
FF
0F
00
00
00
00
00
00
00
00
00
00
F0
FF
FF
FF
FF
0F
00
00
00
00
00
00
00
00
F0
FF
FF
FF
FF
FF
0F
0F
00
00
00
00
00
00
00
FF
F0
FF
FF
FF
FF
FF
0F
00
00
00
00
00
00
00
F0
FF
FF
FF
FF
FF
FF
00
00
00
00
00
00
00
00
00
00
F0
FF
FF
F0
00
00
00
00
00
00
10
11
00
00
00
00
00
00
0F
FF
00
00
00
00
10
11
11
01
00
00
00
00
00
F0
00
00
00
00
00
00
11
11
01
00
00
00
00
00
00
00
00
00
00
00
10
11
11
11
00
00
00
00
00
00
00
00
00
F0
0F
00
10
01
00
00
00
00
00
00
00
00
00
00
FF
FF
00
00
00
00
00
00
00
00
00
00
00
00
F0
FF
00
00
00
00
00
00
00
00
00
00
00
00
00
00
00
00
00
00
00
00
00
00
00
00
00
00
00
00
00
00
00
00
00
00
00
00
00
00
00
00
00
00
00
00
00
00
00
00
00
00
00
00
00
00
00
00
00
00
00
00
00
00
00
00
00
00
00
00
00
00
00
00
00
00
00
00
00
00
00
00
00
00
00
00
00
00
00
00
00
00
00
00
00
00
00
00
00
00
00
00
00
00
00
00
00
00
00
00
00
00
00
00
00
00
00
00
00
00
00
00
00
00
00
00
00
00
00
00
00
00
00
00
00
00
00
00
00
00
00
00
00
00
00
00
00
00
00
00
00
00
00
00
00
00
00
00
00
00
00
00
00
00
00
00
00
00
00
00
00
00
00
00
00
00
00
00
00
00
00
00
00
00
00
00
00
00
00
00
00
00
00
00
00
00
00
00
00
00
00
00
00
10
0F
00
F0
00
FF
FF
FF
FF
FF
FF
FF
00
00
00
F0
0F
0F
00
00
00
00
00
00
00
00
00
00
00
00
FF
00
00
00
00
00
00
00
00
00
00
00
00
00
00
01
00
00
00
00
00
00
00
00
00
00
00
00
00
00
00
00
11
11
11
00
00
01
00
00
00
00
00
00
00
10
11
11
11
11
11
11
01
00
00
01
00
00
00
10
00
11
22
22
12
11
00
00
00
00
00
00
00
00
00
00
10
11
11
10
00
00
00
00
00
10
00
00
F0
EF
ED
FE
FF
00
00
00
00
00
00
00
00
00
F0
FF
EE
FE
FF
00
00
00
00
00
00
00
00
00
00
00
FF
FF
00
00
00
00
00
00
00
00
F0
0F
00
00
11
00
00
00
00
00
F0
0F
00
00
00
0F
00
00
00
00
00
00
00
00
F0
0F
00
FF
00
00
00
00
00
00
F0
00
00
00
00
0F
F0
0F
00
00
00
00
00
00
00
00
00
00
00
0F
00
00
00
00
00
00
00
00
00
00
00
00
00
0F
10
00
00
00
00
00
00
00
00
00
00
00
00
00
00
00
00
00
00
00
00
00
00
00
00
00
00
00
00
00
00
00
00
00
00
00
00
00
00
00
00
00
00
00
00
00
00
00
00
00
00
00
00
01
00
00
00
00
00
00
00
00
00
00
00
00
00
00
00
00
00
00
00
00
00
00
00
00
00
00
00
00
00
00
00
00
00
00
00
00
00
00
00
00
00
00
00
00
00
00
00
00
00
00
00
00
00
00
00
00
00
00
00
00
00
00
00
00
00
00
00
00
00
00
00
00
00
00
00
00
00
00
00
00
00
00
00
00
00
00
00
00
00
00
00
00
00
00
00
00
00
01
00
00
00
00
00
00
00
00
00
00
00
00
00
F0
00
00
00
00
00
00
00
00
00
00
00
00
00
00
00
00
00
00
00
00
00
00
00
00
00
00
00
00
00
00
00
00
00
00
00
00
00
00
00
00
00
00
00
00
00
00
00
00
00
00
00
00
00
00
00
00
00
00
00
00
00
00
00
00
00
00
00
00
00
00
00
00
00
00
00
00
00
00
00
00
00
00
00
00
00
00
00
00
00
00
00
00
00
00
00
00
00
00
00
00
00
00
00
00
00
00
00
00
00
00
00
00
00
00
00
00
00
00
00
00
00
00
00
00
00
00
00
00
00
00
00
00
00
00
00
00
00
00
00
00
00
00
00
00
00
00
00
00
00
00
00
00
00
00
00
00
00
00
00
00
00
00
00
00
00
00
00
00
00
00
00
00
00
00
00
00
00
00
00
00
00
00
00
00
00
00
00
00
00
F0
0F
00
00
00
00
00
00
00
00
00
00
00
00
FF
0F
00
00
00
00
00
00
00
00
00
00
00
F0
FE
00
00
00
00
00
00
00
00
00
00
00
00
EF
FE
10
00
00
00
00
00
00
00
00
00
00
FF
EE
0F
01
00
00
00
00
00
00
0F
00
00
FF
EE
FE
10
00
00
00
00
00
00
00
0F
00
FF
EF
FE
0F
00
00
00
00
00
00
00
00
FF
FF
FF
FE
0F
00
00
00
00
00
00
00
00
00
FF
FF
FF
FF
0F
00
00
00
00
00
00
00
00
00
FF
FF
0F
00
00
00
00
00
00
00
00
00
00
00
FF
F0
0F
00
00
00
00
00
00
00
00
00
00
00
FF
00
00
00
00
00
00
00
00
00
00
00
00
00
FF
00
00
00
00
00
00
00
00
00
00
00
00
00
00
00
00
00
00
00
00
00
00
00
00
00
00
00
00
00
01
00
00
00
00
00
00
00
00
00
00
00
00
F0
00
00
00
00
00
00
00
00
00
00
00
00
F1
FF
F0
00
00
00
00
00
00
00
00
00
00
00
00
FF
FF
00
00
00
00
00
00
00
00
00
00
00
00
00
00
00
00
00
00
00
00
00
00
00
00
00
00
00
01
01
00
00
00
00
00
00
00
00
00
00
10
11
11
11
11
00
10
10
01
00
00
00
00
00
21
21
11
11
22
22
12
11
01
00
00
00
00
00
21
22
22
22
22
11
11
00
00
00
00
00
00
00
10
21
11
00
EF
EE
EE
FF
FF
00
00
00
00
00
FD
EE
DD
CC
DC
ED
FE
FF
00
00
00
00
00
00
CC
AB
AA
CB
ED
FF
00
00
10
00
00
00
00
00
CC
BC
ED
00
10
11
11
11
01
00
00
00
00
00
FE
FF
10
11
11
11
11
00
00
00
00
00
00
00
10
11
11
11
01
01
00
00
00
00
00
00
00
00
10
11
10
00
00
00
F0
00
00
00
00
00
00
00
00
00
00
00
00
0F
00
00
00
00
00
00
00
00
00
00
00
00
00
00
00
00
00
00
00
00
00
00
00
00
00
00
00
00
00
00
00
00
00
00
00
00
00
00
00
00
00
00
00
00
00
00
00
00
00
00
00
00
00
00
00
00
00
00
00
00
00
00
00
00
00
00
00
00
00
00
00
00
00
00
00
00
00
00
00
00
00
00
00
00
00
00
00
00
00
00
00
00
00
00
00
00
00
00
00
00
00
00
00
00
00
00
00
00
00
00
00
00
00
00
00
00
00
00
00
00
00
00
00
00
00
00
00
00
00
00
00
00
00
00
00
00
00
00
00
00
00
00
00
00
00
00
00
00
10
00
00
00
00
00
00
00
00
00
00
00
00
00
00
00
00
00
0F
00
00
00
00
00
00
00
01
00
01
00
00
00
00
00
00
00
00
00
00
00
00
00
00
00
00
00
00
00
00
00
00
00
00
00
00
00
00
00
00
00
00
00
00
00
00
00
00
00
00
00
00
00
00
00
00
00
00
00
00
00
00
00
00
00
00
00
00
00
00
00
00
00
00
00
00
00
00
00
00
00
00
00
00
00
00
00
00
00
00
00
00
00
00
00
00
00
00
00
00
00
00
00
00
00
00
00
00
00
00
00
00
00
00
00
00
00
00
00
00
00
00
00
00
00
00
00
00
00
00
00
00
00
00
00
00
00
00
00
00
00
00
00
00
00
00
00
00
00
00
00
00
00
00
00
00
00
00
00
00
00
00
00
00
00
00
00
00
00
00
00
00
00
00
00
00
00
00
00
00
00
00
00
00
00
00
00
00
00
00
00
00
00
00
00
00
00
00
00
00
00
00
00
00
00
00
00
00
00
00
00
00
00
00
00
00
00
00
00
00
00
00
00
00
00
00
00
00
00
00
00
00
00
00
00
00
00
00
00
00
00
00
00
00
00
00
00
00
00
00
00
00
00
00
00
00
00
00
00
00
00
00
00
00
00
00
F0
10
00
00
00
01
00
F0
00
00
00
10
01
00
FF
11
01
00
FF
11
01
00
00
00
00
10
01
FF
0F
11
F0
00
FF
11
01
00
F0
0F
00
11
F0
FF
0F
11
F1
00
FF
11
01
00
F0
00
10
11
E0
EE
10
11
F0
0F
EE
11
11
00
00
00
11
F1
DE
FE
11
11
F0
FF
EE
10
11
00
00
01
00
EF
EC
0F
11
11
F0
EF
EE
10
11
00
00
00
F0
DE
FE
10
01
11
F0
EF
ED
10
11
00
00
00
EF
EE
0F
00
00
00
00
EF
DE
10
11
00
10
F0
EE
FE
10
11
11
11
F0
CE
CC
FE
10
00
10
11
11
00
00
00
FF
FF
FF
0F
00
00
00
00
00
11
00
00
00
00
00
FF
0F
00
00
00
00
00
00
01
00
00
00
00
F0
FF
0F
00
00
00
00
00
00
01
00
00
00
00
FF
FF
00
00
00
00
00
00
00
00
00
00
00
F0
FF
FF
00
00
00
00
00
00
00
01
00
00
00
F0
FF
FF
00
00
00
00
00
00
00
00
00
00
00
FF
EF
0F
00
00
00
00
00
00
00
00
00
00
F0
FF
FF
00
00
00
00
00
00
00
00
00
00
00
F0
FF
FF
00
00
00
00
00
00
00
00
00
00
00
FF
FF
0F
00
00
00
00
00
00
00
00
00
00
FF
FF
FF
0F
00
00
00
00
00
00
00
00
00
00
F0
FF
0F
00
10
01
00
00
00
00
00
00
00
00
00
00
00
00
10
00
00
00
00
00
00
00
00
00
00
00
00
00
00
F0
0F
00
00
00
00
00
00
00
00
00
00
00
00
F0
0F
00
00
00
00
00
00
00
00
00
00
00
00
FF
00
00
00
00
00
00
00
00
00
00
00
00
00
0F
00
00
00
00
00
00
00
00
00
00
00
00
00
0F
00
00
00
00
00
00
00
00
00
00
00
00
00
00
00
00
00
00
00
00
00
00
00
00
00
00
00
00
00
00
00
00
00
00
00
00
00
00
00
00
00
00
00
00
00
00
00
00
00
00
00
00
00
00
00
00
00
00
00
00
00
00
00
00
00
00
00
00
00
00
00
00
00
00
00
00
00
00
00
00
00
00
00
00
00
00
00
00
00
00
00
00
00
00
00
00
00
00
00
00
00
00
00
00
00
00
00
00
00
00
00
00
00
00
00
00
00
00
00
00
00
00
00
00
00
00
00
00
00
00
00
00
00
00
00
00
00
00
00
00
00
00
00
00
00
00
11
10
01
00
00
00
00
00
00
00
00
00
00
00
01
11
00
00
00
F0
00
00
00
00
00
00
00
00
10
11
10
10
00
00
00
00
00
00
00
00
00
00
11
11
11
11
00
00
00
00
00
00
00
00
00
00
11
11
11
11
01
00
00
00
00
00
00
00
00
00
10
11
12
11
11
11
00
00
00
00
00
00
00
00
0F
10
21
22
11
11
11
00
00
00
00
00
00
00
EE
FF
0F
10
11
11
11
11
00
00
00
00
00
00
DD
CD
CC
ED
FE
FF
00
00
10
00
00
00
00
00
DD
CC
BB
BB
DC
EE
FF
0F
00
00
00
00
00
00
EE
EE
EE
EE
EE
EE
FE
FF
0F
00
00
00
00
00
0F
10
10
01
00
F0
FF
FF
0F
00
00
00
00
00
11
10
11
11
11
11
00
00
00
00
00
00
00
00
11
01
10
11
11
11
01
01
00
00
00
00
00
00
01
00
00
00
00
00
00
00
00
00
00
00
00
00
00
00
00
00
00
00
00
00
00
00
00
00
00
00
00
00
00
00
00
00
00
00
00
00
00
00
00
00
00
00
00
00
00
00
00
00
00
00
00
00
00
00
01
00
00
00
00
00
00
00
00
00
00
00
00
00
00
00
00
00
00
00
00
00
00
00
00
00
00
00
00
00
00
00
00
00
00
00
00
00
00
00
00
00
00
00
00
00
00
00
00
00
00
00
00
00
00
F0
00
00
00
00
00
00
00
00
00
00
00
00
00
00
00
00
00
00
00
00
00
00
00
00
00
00
00
00
00
00
00
00
00
00
00
00
00
00
00
00
00
00
00
00
00
00
00
00
00
00
00
00
00
00
00
00
00
00
00
00
00
00
00
00
00
00
00
00
00
00
00
00
00
00
00
00
00
00
00
00
00
00
00
00
00
FF
00
00
00
00
00
00
00
00
00
00
0F
