FF31
FF4B
005F
004C
FFFC
FE7D
00AD
0017
0138
0055
FFDF
FF3C
FF2B
0009
FFE8
FF98
FF78
FFF5
FFE4
002B
00AA
002B
FF71
00A9
FF78
FF35
FF84
FE14
0071
FFAC
004E
FEC2
FFA5
0055
FFA5
FFB9
FF69
004D
FFE9
006E
0081
FFF7
FFCB
0023
00BD
FF51
FF55
FF12
0004
FF5D
FF7B
FEC8
FFB8
FEE4
009C
004B
00BA
FF9E
0281
0046
00E0
FFA7
FFF1
012D
0116
0103
00EB
0270
001E
005A
02F7
FE90
FFD6
FFBB
020D
0130
FFE5
FFA6
0027
FFF1
FFC0
FF6C
FF5B
0008
FF92
FFC8
00A8
FF67
FF88
FF07
004C
FFB5
FFFD
FF98
0060
FFF8
FEBF
FFA1
00F9
FF22
FFB0
FFDA
FF76
0021
FF4A
00A6
FF19
0039
0064
FEBA
0062
FFDF
00CB
0087
FF4B
FFB1
FF82
FF92
FF5E
0079
0001
FF20
FF6B
007D
0024
0112
FFF3
0031
