00
F0
00
00
00
F0
00
10
F0
00
00
00
01
01
00
E0
0F
F0
00
F0
00
00
F0
10
DF
E0
F0
F0
00
00
00
0D
F0
10
0F
F0
F0
00
FF
E1
0F
00
1F
00
F0
F0
F1
0F
00
00
0E
FF
E1
F0
01
10
00
F1
0F
0F
01
F0
E0
11
F0
00
00
00
FF
00
00
00
F0
00
11
F0
F0
0F
0E
0F
F0
F0
00
0F
10
0E
F0
1E
0F
00
00
F0
0F
0F
00
E0
0F
0F
00
00
0F
0F
0F
0F
01
00
00
00
00
0D
0F
00
E1
0E
00
01
10
00
0F
1F
00
0F
F0
00
EE
0F
0F
F0
00
00
FF
0F
00
01
0F
F0
0E
00
00
F0
1E
0F
00
FF
F0
00
0F
FF
F0
00
01
F0
FF
00
EF
0F
0F
E0
00
1E
EF
1F
01
FF
00
0F
F0
FF
00
00
FF
10
10
00
00
02
00
00
1E
01
FF
00
10
FF
00
0F
01
00
00
F0
FF
D0
00
01
10
F0
E1
0F
1F
01
00
00
FF
10
01
F0
01
00
00
00
0E
00
00
10
00
00
01
0F
00
00
01
0E
E0
00
01
00
E0
00
0D
00
01
1F
00
0F
00
E0
0F
0F
FF
00
F0
00
F0
11
01
E0
00
00
0D
01
00
0F
00
00
00
0F
E0
F0
00
00
FF
00
01
0F
01
00
0F
00
01
0C
00
0E
DF
00
1F
10
11
FF
F0
0F
00
00
F1
00
0F
00
00
00
00
00
F0
00
0F
F0
00
00
F0
00
00
F0
FF
00
F1
F0
00
00
F0
F0
E1
F0
00
00
FE
E1
00
0F
00
F0
00
1D
E0
F1
01
00
F0
00
00
00
01
0F
1E
00
F1
01
EF
01
0F
F0
0F
E0
00
FF
F1
1F
01
F1
0F
F0
00
00
F0
FF
F0
00
01
FF
00
00
F0
01
00
EE
F0
0E
0F
F0
0F
00
00
01
FF
F0
0F
E0
0F
E0
00
1F
00
00
00
00
10
E0
10
00
00
00
00
F0
00
00
0F
F0
F1
00
00
F0
00
F0
11
00
01
F1
FF
00
00
F1
EF
F0
00
0F
01
F0
00
1C
FF
10
00
FE
00
F0
01
0E
00
00
0F
00
00
00
F0
00
01
00
0E
00
F0
E0
00
FF
00
00
D0
00
EF
F0
0F
00
1E
00
FF
F0
00
00
1E
00
FF
00
01
00
00
0E
00
0F
F1
0F
F0
F0
00
10
00
00
0F
00
FF
00
E0
00
FF
0F
10
F0
F0
01
10
0F
11
00
F0
00
01
FF
00
FE
0F
0F
00
F0
E1
10
10
00
FF
00
0E
00
00
F0
00
1F
0F
00
0F
00
00
F0
00
F0
F0
00
00
01
E0
10
10
0E
01
00
F0
0E
1F
00
0F
10
0F
F0
00
0E
D0
00
E0
F0
00
00
00
00
00
0F
F0
F1
10
0F
00
00
0E
00
00
00
01
FF
00
0D
0F
00
10
00
01
00
F1
F0
D0
00
F0
00
F0
00
00
0F
00
F1
F0
0D
00
F0
00
00
01
00
00
00
00
00
00
00
00
0F
0F
0F
00
0E
01
1F
00
00
00
0D
00
D1
0F
0E
00
F0
0F
00
01
E0
00
00
00
00
00
09
10
00
E0
00
00
00
00
F0
00
EF
00
00
00
00
0E
F0
1E
F0
00
00
00
00
00
00
00
11
00
E0
F1
0E
00
F0
00
00
0F
E1
00
10
0F
00
00
F0
00
F0
00
EF
01
0F
00
10
00
F0
01
00
00
F0
E0
0F
00
F1
00
00
0E
00
F0
E1
00
00
10
01
E0
E0
00
10
EF
00
00
0F
00
D0
10
0E
F0
0F
0F
01
FF
00
0F
EF
00
11
00
00
00
0D
00
0F
D0
0F
00
0F
00
1F
01
0E
00
01
F0
00
FE
00
F0
00
F0
F0
00
0F
00
F0
00
0F
00
0F
0F
00
00
00
F0
F0
00
00
0F
F0
00
F0
00
0F
DE
00
FF
00
FF
00
00
0C
1F
00
0F
F1
00
00
00
00
0F
01
01
00
00
0D
00
0E
E0
F0
00
1F
1F
10
FF
F0
00
0E
01
00
00
1F
FF
00
00
F0
0F
01
00
00
0E
00
FF
01
01
00
00
0F
00
0F
00
EE
00
FF
00
00
E0
10
0F
00
F0
F0
F0
00
F1
0F
00
0F
DE
11
0E
00
FF
00
FF
01
01
F0
FF
00
0F
10
00
00
01
00
F0
0F
FF
10
1E
01
11
F0
00
00
00
00
F0
00
00
FF
01
00
1F
10
00
FF
00
1F
00
E0
00
F0
01
00
FE
C0
10
00
00
00
F0
F0
0D
0F
00
00
00
00
00
10
01
00
00
0E
00
00
F1
00
00
1F
F1
F0
FF
01
10
F0
E0
F1
F0
FF
F0
11
00
F1
10
F1
01
10
00
00
FF
1F
00
F0
F0
00
1F
00
F0
00
10
00
F0
F0
00
10
00
00
D0
00
00
00
01
0F
00
00
10
00
0F
10
FE
00
00
10
00
01
0F
0E
E1
01
00
F0
F0
1F
F0
E0
00
00
1E
F1
F1
10
F0
FF
10
00
00
00
11
FF
01
00
00
00
10
F0
F0
00
00
00
FF
01
0F
F0
E1
FF
0F
00
00
00
01
00
01
F0
1E
00
0D
00
0D
0F
00
00
00
00
10
0C
