F6
BA
D3
B3
FE
ED
94
23
35
CB
E4
BB
43
3C
CE
3E
3C
AD
4F
B4
BA
33
BD
AA
BC
B4
D3
DB
DA
3A
45
A4
DC
4C
33
3D
BD
4D
43
EF
04
4C
3C
5C
BC
3E
CD
4E
2C
FE
04
3D
5E
CE
42
C4
3E
3C
DD
54
BD
1F
3D
BE
DC
C5
DE
2E
C4
3E
CD
3B
CC
53
C3
9D
B3
C3
2E
42
25
92
D4
2E
54
D3
BE
BD
3F
BE
2E
43
4D
C2
AE
DE
E5
BA
0D
3D
6C
00
B4
3A
CD
AB
34
AD
0D
C3
C4
34
EA
4D
4C
C3
C3
DC
5C
CB
34
55
EC
B4
E2
DE
EF
BF
E4
33
FC
21
12
F3
1E
20
2D
BD
DD
6E
0D
3D
14
EE
0B
44
ED
D0
C0
DD
CC
03
E0
05
DC
B4
33
D3
31
2E
